{
  "version": "1.0",
  "truncation": null,
  "padding": null,
  "added_tokens": [
    {
      "id": 0,
      "content": "<unk>",
      "single_word": false,
      "lstrip": false,
      "rstrip": false,
      "normalized": false,
      "special": true
    },
    {
      "id": 1,
      "content": "<s>",
      "single_word": false,
      "lstrip": false,
      "rstrip": false,
      "normalized": false,
      "special": true
    },
    {
      "id": 2,
      "content": "</s>",
      "single_word": false,
      "lstrip": false,
      "rstrip": false,
      "normalized": false,
      "special": true
    }
  ],
  "normalizer": {
    "type": "Sequence",
    "normalizers": [
      {
        "type": "Prepend",
        "prepend": "▁"
      },
      {
        "type": "Replace",
        "pattern": {
          "String": " "
        },
        "content": "▁"
      }
    ]
  },
  "pre_tokenizer": null,
  "post_processor": {
    "type": "TemplateProcessing",
    "single": [
      {
        "SpecialToken": {
          "id": "<s>",
          "type_id": 0
        }
      },
      {
        "Sequence": {
          "id": "A",
          "type_id": 0
        }
      }
    ],
    "pair": [
      {
        "SpecialToken": {
          "id": "<s>",
          "type_id": 0
        }
      },
      {
        "Sequence": {
          "id": "A",
          "type_id": 0
        }
      },
      {
        "SpecialToken": {
          "id": "<s>",
          "type_id": 1
        }
      },
      {
        "Sequence": {
          "id": "B",
          "type_id": 1
        }
      }
    ],
    "special_tokens": {
      "<s>": {
        "id": "<s>",
        "ids": [
          1
        ],
        "tokens": [
          "<s>"
        ]
      }
    }
  },
  "decoder": {
    "type": "Sequence",
    "decoders": [
      {
        "type": "Replace",
        "pattern": {
          "String": "▁"
        },
        "content": " "
      },
      {
        "type": "ByteFallback"
      },
      {
        "type": "Fuse"
      },
      {
        "type": "Strip",
        "content": " ",
        "start": 1,
        "stop": 0
      }
    ]
  },
  "model": {
    "type": "BPE",
    "dropout": null,
    "unk_token": "<unk>",
    "continuing_subword_prefix": null,
    "end_of_word_suffix": null,
    "fuse_unk": true,
    "byte_fallback": true,
    "vocab": {
      "<unk>": 0,
      "<s>": 1,
      "</s>": 2,
      "\t": 3,
      "\n": 4,
      "!": 5,
      "\"": 6,
      "#": 7,
      "$": 8,
      "%": 9,
      "&": 10,
      "'": 11,
      "(": 12,
      ")": 13,
      "*": 14,
      "+": 15,
      ",": 16,
      "-": 17,
      ".": 18,
      "/": 19,
      "0": 20,
      "1": 21,
      "2": 22,
      "3": 23,
      "4": 24,
      "5": 25,
      "6": 26,
      "7": 27,
      "8": 28,
      "9": 29,
      ":": 30,
      ";": 31,
      "<": 32,
      "=": 33,
      ">": 34,
      "?": 35,
      "@": 36,
      "A": 37,
      "B": 38,
      "C": 39,
      "D": 40,
      "E": 41,
      "F": 42,
      "G": 43,
      "H": 44,
      "I": 45,
      "J": 46,
      "K": 47,
      "L": 48,
      "M": 49,
      "N": 50,
      "O": 51,
      "P": 52,
      "Q": 53,
      "R": 54,
      "S": 55,
      "T": 56,
      "U": 57,
      "V": 58,
      "W": 59,
      "X": 60,
      "Y": 61,
      "Z": 62,
      "[": 63,
      "\\": 64,
      "]": 65,
      "_": 66,
      "`": 67,
      "a": 68,
      "b": 69,
      "c": 70,
      "d": 71,
      "e": 72,
      "f": 73,
      "g": 74,
      "h": 75,
      "i": 76,
      "j": 77,
      "k": 78,
      "l": 79,
      "m": 80,
      "n": 81,
      "o": 82,
      "p": 83,
      "q": 84,
      "r": 85,
      "s": 86,
      "t": 87,
      "u": 88,
      "v": 89,
      "w": 90,
      "x": 91,
      "y": 92,
      "z": 93,
      "{": 94,
      "|": 95,
      "}": 96,
      "~": 97,
      " ": 98,
      "¡": 99,
      "¢": 100,
      "£": 101,
      "¤": 102,
      "¥": 103,
      "¦": 104,
      "§": 105,
      "¨": 106,
      "©": 107,
      "ª": 108,
      "«": 109,
      "¬": 110,
      "­": 111,
      "®": 112,
      "¯": 113,
      "°": 114,
      "±": 115,
      "²": 116,
      "³": 117,
      "´": 118,
      "µ": 119,
      "¶": 120,
      "·": 121,
      "¸": 122,
      "¹": 123,
      "º": 124,
      "»": 125,
      "¼": 126,
      "½": 127,
      "¾": 128,
      "¿": 129,
      "Â": 130,
      "Ã": 131,
      "Ä": 132,
      "Å": 133,
      "É": 134,
      "Ê": 135,
      "Ñ": 136,
      "Ò": 137,
      "á": 138,
      "â": 139,
      "ã": 140,
      "ä": 141,
      "å": 142,
      "æ": 143,
      "ç": 144,
      "è": 145,
      "é": 146,
      "î": 147,
      "ï": 148,
      "ð": 149,
      "Œ": 150,
      "œ": 151,
      "Š": 152,
      "š": 153,
      "Ÿ": 154,
      "Ž": 155,
      "ž": 156,
      "ƒ": 157,
      "ˆ": 158,
      "˜": 159,
      "–": 160,
      "‘": 161,
      "’": 162,
      "‚": 163,
      "“": 164,
      "”": 165,
      "„": 166,
      "†": 167,
      "‡": 168,
      "•": 169,
      "…": 170,
      "‰": 171,
      "‹": 172,
      "›": 173,
      "€": 174,
      "™": 175,
      "▁": 176,
      "e▁": 177,
      "d▁": 178,
      "th": 179,
      "▁a": 180,
      ".▁": 181,
      "t▁": 182,
      "y▁": 183,
      "s▁": 184,
      "er": 185,
      "nd▁": 186,
      "o▁": 187,
      "ed▁": 188,
      "the▁": 189,
      "in": 190,
      "wa": 191,
      ",▁": 192,
      "he▁": 193,
      "ou": 194,
      "▁and▁": 195,
      "to▁": 196,
      "en": 197,
      "ar": 198,
      "om": 199,
      "\n\n": 200,
      "on": 201,
      "ha": 202,
      "▁a▁": 203,
      "ing": 204,
      "sa": 205,
      "il": 206,
      "or": 207,
      "er▁": 208,
      "he": 209,
      "an": 210,
      "▁the▁": 211,
      "was▁": 212,
      ".▁T": 213,
      "it": 214,
      "im": 215,
      "st": 216,
      "id": 217,
      "re": 218,
      "lo": 219,
      ".\n\n": 220,
      "l▁": 221,
      "and▁": 222,
      ".▁S": 223,
      "the": 224,
      "is▁": 225,
      "ir": 226,
      "la": 227,
      "ing▁": 228,
      ".▁H": 229,
      ".▁She▁": 230,
      "a▁": 231,
      "to": 232,
      "ed▁to▁": 233,
      ".▁He▁": 234,
      "▁h": 235,
      "hey▁": 236,
      "ck": 237,
      "it▁": 238,
      "ri": 239,
      "al": 240,
      "at▁": 241,
      "wi": 242,
      "no": 243,
      "el": 244,
      "ere▁": 245,
      "da": 246,
      ".▁They▁": 247,
      "le": 248,
      "ver": 249,
      "am": 250,
      "Lil": 251,
      "pp": 252,
      "li": 253,
      "of": 254,
      "en▁": 255,
      "with": 256,
      "ut▁": 257,
      "she▁": 258,
      "ok": 259,
      "ch": 260,
      "On": 261,
      "un": 262,
      "y,▁": 263,
      "sh": 264,
      "ed": 265,
      "you": 266,
      "ig": 267,
      "le▁": 268,
      "w▁": 269,
      "pla": 270,
      "for": 271,
      "be": 272,
      "ld▁": 273,
      "\"▁": 274,
      "ve▁": 275,
      "se": 276,
      "up": 277,
      "om▁": 278,
      "was": 279,
      "an▁": 280,
      "so▁": 281,
      "ne": 282,
      "said": 283,
      "ce▁": 284,
      "her▁": 285,
      "that▁": 286,
      "had▁": 287,
      "ma": 288,
      "es": 289,
      ".▁I": 290,
      "ra": 291,
      "ke▁": 292,
      ",▁\"": 293,
      "bo": 294,
      "very▁": 295,
      "ro": 296,
      "do": 297,
      "they▁": 298,
      "wan": 299,
      "happ": 300,
      "y▁and▁": 301,
      "'s▁": 302,
      "itt": 303,
      "wh": 304,
      "e,▁": 305,
      "tim": 306,
      "was▁a▁": 307,
      "id▁": 308,
      "gh": 309,
      "car": 310,
      ".▁The▁": 311,
      "his▁": 312,
      "in▁the▁": 313,
      "ittle▁": 314,
      "go": 315,
      "ed▁and▁": 316,
      "little▁": 317,
      "The▁": 318,
      "at": 319,
      "\"\n\n": 320,
      "▁ar": 321,
      "end": 322,
      "my▁": 323,
      "sm": 324,
      "big": 325,
      "ould▁": 326,
      "Lily▁": 327,
      "to▁the▁": 328,
      "ted▁to▁": 329,
      "fri": 330,
      "there▁": 331,
      "ur": 332,
      "ge": 333,
      "ba": 334,
      "som": 335,
      "said,▁\"": 336,
      "s▁and▁": 337,
      "▁On": 338,
      "e▁da": 339,
      "you▁": 340,
      "not▁": 341,
      "sk": 342,
      ".▁It▁": 343,
      "look": 344,
      "on▁a▁": 345,
      "se▁": 346,
      "but▁": 347,
      "were▁": 348,
      "'t▁": 349,
      "ly▁": 350,
      "of▁": 351,
      "▁Once▁": 352,
      "friend": 353,
      "▁her▁": 354,
      "ed▁the▁": 355,
      "ound▁": 356,
      "fu": 357,
      "One▁da": 358,
      "with▁": 359,
      "be▁": 360,
      "!▁": 361,
      "there▁was▁a▁": 362,
      "ec": 363,
      "m▁": 364,
      "ic": 365,
      "sp": 366,
      "ent▁": 367,
      ".▁\n\n": 368,
      "gir": 369,
      "ther": 370,
      "▁al": 371,
      "ir▁": 372,
      "upon▁a▁": 373,
      "mom": 374,
      "upon▁a▁tim": 375,
      "▁Once▁upon▁a▁tim": 376,
      "e▁and▁": 377,
      "ck▁": 378,
      ".\n\n\"": 379,
      "et": 380,
      "es▁": 381,
      "big▁": 382,
      "co": 383,
      "play": 384,
      "is": 385,
      "smil": 386,
      "hel": 387,
      "play▁": 388,
      "I▁": 389,
      "ex": 390,
      "tt": 391,
      "said▁": 392,
      "have▁": 393,
      "their▁": 394,
      "saw": 395,
      "ea": 396,
      "wanted▁to▁": 397,
      "ta": 398,
      "One▁day,▁": 399,
      "▁are▁": 400,
      "▁his▁": 401,
      "op": 402,
      "was▁so▁": 403,
      "Tim": 404,
      "ga": 405,
      "k▁": 406,
      "st▁": 407,
      "ch▁": 408,
      "girl▁": 409,
      "mom▁": 410,
      "for▁": 411,
      "But▁": 412,
      "ent": 413,
      "nam": 414,
      "hat▁": 415,
      "out▁": 416,
      "fi": 417,
      "help": 418,
      "went▁": 419,
      ",▁and▁": 420,
      ",▁but▁": 421,
      "him": 422,
      "fel": 423,
      "ug": 424,
      "all": 425,
      "lov": 426,
      "par": 427,
      ".\"\n\n": 428,
      "▁Once▁upon▁a▁time,▁": 429,
      "wn": 430,
      "▁an": 431,
      "!\"▁": 432,
      "You": 433,
      "sid": 434,
      "fun": 435,
      "out": 436,
      "way": 437,
      "dd": 438,
      "n't▁": 439,
      "nd": 440,
      "on▁": 441,
      "on▁the▁": 442,
      "ep": 443,
      "star": 444,
      "ough": 445,
      "s.▁": 446,
      "named▁": 447,
      "Lily": 448,
      "some": 449,
      "new▁": 450,
      "ca": 451,
      "um": 452,
      "was▁very▁": 453,
      "▁Once▁upon▁a▁time,▁there▁was▁a▁": 454,
      "in▁": 455,
      "thing▁": 456,
      "e.▁": 457,
      "go▁": 458,
      "like▁": 459,
      "one▁": 460,
      "fa": 461,
      "can▁": 462,
      "igh": 463,
      "wor": 464,
      "fe": 465,
      "ver▁": 466,
      "ho": 467,
      "ld": 468,
      "bir": 469,
      "looked▁": 470,
      "t▁to▁": 471,
      "could▁": 472,
      "fr": 473,
      "ill▁": 474,
      "rea": 475,
      "g▁": 476,
      "little▁girl▁": 477,
      "â€": 478,
      "say": 479,
      "felt▁": 480,
      "mor": 481,
      "thing": 482,
      "po": 483,
      "bu": 484,
      "gr": 485,
      "com": 486,
      "would▁": 487,
      "ther▁": 488,
      "of▁the▁": 489,
      "de▁": 490,
      "f▁": 491,
      "saw▁a▁": 492,
      "happy▁": 493,
      "make▁": 494,
      "cam": 495,
      ".\n\nThe▁": 496,
      "some▁": 497,
      "mu": 498,
      "ick": 499,
      "low": 500,
      "them": 501,
      "wal": 502,
      "me": 503,
      "y.▁": 504,
      "wat": 505,
      "see▁": 506,
      "pa": 507,
      "Ma": 508,
      "tr": 509,
      "r▁": 510,
      "her": 511,
      "did▁": 512,
      "lik": 513,
      "toge": 514,
      "it▁was▁": 515,
      "what▁": 516,
      "ed▁her▁": 517,
      "made▁": 518,
      "ful": 519,
      "scar": 520,
      "oo": 521,
      "had▁a▁": 522,
      "tre": 523,
      "cit": 524,
      "Ben▁": 525,
      "all▁": 526,
      "Tom": 527,
      ",\"▁": 528,
      "pr": 529,
      "goo": 530,
      ".▁\"": 531,
      "Wh": 532,
      "excit": 533,
      "ut": 534,
      "t▁the▁": 535,
      "cou": 536,
      "boy▁": 537,
      ".\"▁": 538,
      "came▁": 539,
      "ful▁": 540,
      "ard▁": 541,
      "Ben": 542,
      "something▁": 543,
      "dec": 544,
      "happy": 545,
      "ow": 546,
      "al▁": 547,
      "qu": 548,
      "my": 549,
      "found▁": 550,
      "them▁": 551,
      "gain": 552,
      "day▁": 553,
      "Mom": 554,
      "ke": 555,
      "decid": 556,
      "ly": 557,
      "nn": 558,
      "very": 559,
      "toy": 560,
      "loved▁to▁": 561,
      "who▁": 562,
      "x▁": 563,
      "They▁": 564,
      "ran": 565,
      "put▁": 566,
      "?\"▁": 567,
      "man": 568,
      "You▁": 569,
      "ss": 570,
      "ear": 571,
      "ugh": 572,
      "started▁to▁": 573,
      "mo": 574,
      "want▁to▁": 575,
      "saw▁": 576,
      "ask": 577,
      "di": 578,
      "ol": 579,
      "smiled▁and▁": 580,
      "Ann": 581,
      "did": 582,
      "we▁": 583,
      "sw": 584,
      "ong": 585,
      "when▁": 586,
      "bb": 587,
      "walk": 588,
      "▁ask": 589,
      "kno": 590,
      "s.▁They▁": 591,
      "ft": 592,
      "together": 593,
      "down": 594,
      "ard": 595,
      "though": 596,
      "ound": 597,
      "hug": 598,
      "oud▁": 599,
      "did▁not▁": 600,
      "clo": 601,
      "tri": 602,
      "ts▁": 603,
      "er▁and▁": 604,
      "back▁": 605,
      "back": 606,
      "udd": 607,
      "Tom▁": 608,
      "arn": 609,
      "decided▁to▁": 610,
      "pl": 611,
      "Sam": 612,
      "s,▁": 613,
      "park": 614,
      "use▁": 615,
      "ran▁": 616,
      "pre": 617,
      "We▁": 618,
      "lea": 619,
      "t's▁": 620,
      "hom": 621,
      "▁all▁": 622,
      "took": 623,
      "sur": 624,
      "gre": 625,
      "find▁": 626,
      "spec": 627,
      "your▁": 628,
      "too▁": 629,
      "ved▁": 630,
      "ways▁": 631,
      "too": 632,
      ".▁But▁": 633,
      "sor": 634,
      "gra": 635,
      "d▁and▁": 636,
      "says": 637,
      "outsid": 638,
      ".▁A": 639,
      "will▁": 640,
      "didn't▁": 641,
      "playing▁": 642,
      "learn": 643,
      "on,▁": 644,
      "got▁": 645,
      ",▁a▁": 646,
      "hey": 647,
      ".▁I▁": 648,
      "pe": 649,
      "jo": 650,
      "e▁to▁": 651,
      "!\"\n\n": 652,
      "and": 653,
      "ed▁that▁": 654,
      "Ja": 655,
      "do▁": 656,
      "ice▁": 657,
      "on't▁": 658,
      "ce": 659,
      ".▁Tim": 660,
      "gi": 661,
      "ll": 662,
      "▁ab": 663,
      "ure": 664,
      "Jo": 665,
      "der": 666,
      "Sar": 667,
      "br": 668,
      "speci": 669,
      "with▁her▁": 670,
      "him▁": 671,
      "take▁": 672,
      "He▁": 673,
      "than": 674,
      "ju": 675,
      "▁again": 676,
      "udden": 677,
      "bird▁": 678,
      "man▁": 679,
      "one": 680,
      "ill": 681,
      "so": 682,
      "lu": 683,
      "pu": 684,
      "sta": 685,
      "with▁the▁": 686,
      "e▁the▁": 687,
      "could": 688,
      "Lily▁and▁": 689,
      "liked▁to▁": 690,
      "old▁": 691,
      "cre": 692,
      "then▁": 693,
      "care": 694,
      "?\"\n\n": 695,
      ".▁They": 696,
      "from": 697,
      "ed▁his▁": 698,
      "run": 699,
      "▁him": 700,
      "stor": 701,
      "es▁and▁": 702,
      "han": 703,
      "up▁": 704,
      "p▁": 705,
      "che": 706,
      "▁around▁": 707,
      "ev": 708,
      ".▁One▁day,▁": 709,
      "t▁and▁": 710,
      "sorr": 711,
      "ally▁": 712,
      "bea": 713,
      "other": 714,
      "shar": 715,
      "happy▁and▁": 716,
      "ted▁": 717,
      "ing▁and▁": 718,
      "ar▁": 719,
      "end▁": 720,
      "get▁": 721,
      "day": 722,
      "little▁girl▁named▁": 723,
      "pped▁": 724,
      "way▁": 725,
      "ff": 726,
      "knew▁": 727,
      "gave▁": 728,
      "sun": 729,
      "tur": 730,
      "not": 731,
      "She▁": 732,
      "Mi": 733,
      "or▁": 734,
      "insid": 735,
      "Da": 736,
      "for▁a▁": 737,
      "th▁": 738,
      "laugh": 739,
      "sel": 740,
      "each▁": 741,
      "told▁": 742,
      "with▁his▁": 743,
      "es,▁": 744,
      "good▁": 745,
      "tw": 746,
      "When▁": 747,
      "heard▁": 748,
      "room": 749,
      "friends▁": 750,
      "he▁was▁": 751,
      ".\n\nOne▁day,▁": 752,
      "ny▁": 753,
      "more▁": 754,
      "o,▁": 755,
      "Fr": 756,
      "a▁and▁": 757,
      ".▁It▁was▁": 758,
      "hou": 759,
      "never▁": 760,
      "tter": 761,
      "if▁": 762,
      "in▁a▁": 763,
      "with▁a▁": 764,
      "war": 765,
      "dy▁": 766,
      "ow▁": 767,
      "ly,▁": 768,
      "cle": 769,
      "ve": 770,
      "unt": 771,
      "righ": 772,
      "help▁": 773,
      "▁about▁": 774,
      "cause▁": 775,
      "ight": 776,
      "▁as▁": 777,
      "couldn't▁": 778,
      "because▁": 779,
      "fun▁": 780,
      "From▁": 781,
      "Let": 782,
      "s.▁She▁": 783,
      "sad": 784,
      "il▁": 785,
      "by▁": 786,
      "thank": 787,
      "flow": 788,
      "▁away": 789,
      "other▁": 790,
      "Timmy▁": 791,
      "thought▁": 792,
      "ble": 793,
      "ed,▁": 794,
      "ed▁a▁": 795,
      "to▁be▁": 796,
      "ed▁it▁": 797,
      "ind▁": 798,
      "special▁": 799,
      "pi": 800,
      "every": 801,
      "bra": 802,
      "shin": 803,
      "n▁": 804,
      "uc": 805,
      "ing▁the▁": 806,
      ".▁Th": 807,
      "ump": 808,
      "ite▁": 809,
      "play▁with▁": 810,
      "Max▁": 811,
      "You▁are▁": 812,
      ".▁\n\nThe▁": 813,
      "us": 814,
      "open": 815,
      "sh▁": 816,
      "hugg": 817,
      "many▁": 818,
      "I'": 819,
      "bird": 820,
      "played▁": 821,
      ".▁Lily▁": 822,
      "feel": 823,
      "Mom▁": 824,
      "en,▁": 825,
      "hand": 826,
      "Let's▁": 827,
      "things▁": 828,
      "fin": 829,
      "show": 830,
      "they▁were▁": 831,
      "proud▁": 832,
      "▁and▁the▁": 833,
      "mommy▁": 834,
      "this▁": 835,
      "▁Once▁upon▁a▁time▁": 836,
      "just▁": 837,
      "s.▁He▁": 838,
      "na": 839,
      "she▁was▁": 840,
      "day,▁": 841,
      "found▁a▁": 842,
      "cl": 843,
      "est": 844,
      "little▁boy▁": 845,
      ".\n\nThey▁": 846,
      "col": 847,
      "e.▁He▁": 848,
      "per": 849,
      "dre": 850,
      "around▁": 851,
      "cat": 852,
      "e.▁She▁": 853,
      "s▁the▁": 854,
      "expl": 855,
      "tried▁to▁": 856,
      "â€œ": 857,
      "explor": 858,
      "ed▁a": 859,
      "gard": 860,
      "ell": 861,
      "dog▁": 862,
      "imal": 863,
      "s▁a▁": 864,
      "work": 865,
      "ge▁": 866,
      "beaut": 867,
      "careful": 868,
      "ed.▁She▁": 869,
      "▁Once▁upon▁a▁time,▁there▁was▁a▁little▁girl▁named▁": 870,
      "▁all": 871,
      "b▁": 872,
      ".▁E": 873,
      "et▁": 874,
      "ry": 875,
      "uck": 876,
      "can": 877,
      "for▁the▁": 878,
      "uddenly,▁": 879,
      "don't▁": 880,
      "friends": 881,
      "watch": 882,
      "went▁to▁the▁": 883,
      "much▁": 884,
      "▁always▁": 885,
      "noi": 886,
      "▁her": 887,
      "call": 888,
      "ts▁of▁": 889,
      "toy▁": 890,
      "list": 891,
      "Can▁": 892,
      "beauti": 893,
      "hea": 894,
      "ong▁": 895,
      "me▁": 896,
      "ink": 897,
      ".▁They▁were▁": 898,
      "pri": 899,
      "pick": 900,
      "str": 901,
      "fast": 902,
      "ball": 903,
      "its▁": 904,
      ".▁Timmy▁": 905,
      "fam": 906,
      "Timmy": 907,
      "▁at▁the▁": 908,
      "dad▁": 909,
      "he▁had▁": 910,
      "by": 911,
      "ark": 912,
      "el▁": 913,
      "hat": 914,
      "Joh": 915,
      ".\n\nA": 916,
      "ep▁": 917,
      "▁at▁": 918,
      "fle": 919,
      "was▁so▁excit": 920,
      "from▁the▁": 921,
      ".▁He▁was▁": 922,
      "from▁": 923,
      "up▁and▁": 924,
      ",▁the▁": 925,
      "book": 926,
      "Jack▁": 927,
      "each▁other": 928,
      "good": 929,
      "best▁": 930,
      "Anna▁": 931,
      "lots▁of▁": 932,
      "hur": 933,
      "know▁": 934,
      "dog": 935,
      "ll▁": 936,
      "vent": 937,
      "▁Once▁upon▁a▁time▁there▁was▁a▁": 938,
      "ble▁": 939,
      "at▁the▁": 940,
      "our": 941,
      "▁ad": 942,
      "love▁": 943,
      "int": 944,
      "iz": 945,
      "ion": 946,
      ".▁They▁are▁": 947,
      "ed,▁\"": 948,
      ".▁You▁": 949,
      "they": 950,
      "come▁": 951,
      "▁any": 952,
      "y.▁She▁": 953,
      "that▁day▁": 954,
      "ber": 955,
      "Sam▁": 956,
      "cu": 957,
      "flower": 958,
      "box": 959,
      "foo": 960,
      "even▁": 961,
      "Yes,▁": 962,
      "ct": 963,
      "until▁": 964,
      "famil": 965,
      "Luc": 966,
      "mou": 967,
      "over▁": 968,
      ".\n\nS": 969,
      "lived▁": 970,
      "I'm▁": 971,
      "where▁": 972,
      "Bo": 973,
      "Lily's▁": 974,
      "saw▁the▁": 975,
      "small▁": 976,
      "Lily.▁She▁": 977,
      "surpri": 978,
      "friend▁": 979,
      "jump": 980,
      "!\n\n": 981,
      "peop": 982,
      "ook": 983,
      "ving▁": 984,
      "Tom▁and▁": 985,
      "ind": 986,
      "fter▁": 987,
      "smiled▁and▁said,▁\"": 988,
      "loved▁": 989,
      "dr": 990,
      "Tim▁": 991,
      "have▁a▁": 992,
      "ed.▁He▁": 993,
      "both▁": 994,
      "em": 995,
      "that": 996,
      "how▁": 997,
      "every▁": 998,
      "kep": 999,
      "says,▁\"": 1000,
      "now": 1001,
      "still▁": 1002,
      "dan": 1003,
      "hank▁": 1004,
      "ing▁to▁": 1005,
      "it▁and▁": 1006,
      "off": 1007,
      "prett": 1008,
      "con": 1009,
      "said.▁\"": 1010,
      "From▁that▁day▁": 1011,
      "pic": 1012,
      "girl": 1013,
      "e.▁They▁": 1014,
      "two▁": 1015,
      "tra": 1016,
      "Sara": 1017,
      "give▁": 1018,
      "no▁": 1019,
      "y.▁He▁": 1020,
      "that▁she▁": 1021,
      "into▁the▁": 1022,
      "clos": 1023,
      "imp": 1024,
      "thre": 1025,
      "ey": 1026,
      ".▁It▁was▁a▁": 1027,
      "cra": 1028,
      "he▁could▁": 1029,
      "dra": 1030,
      "ing,▁": 1031,
      "Mia▁": 1032,
      "It▁": 1033,
      "turn": 1034,
      "happy▁to▁": 1035,
      "s▁to▁": 1036,
      "ort": 1037,
      "befor": 1038,
      "shed▁": 1039,
      "t▁a▁": 1040,
      "sto": 1041,
      "mak": 1042,
      "park▁": 1043,
      "should▁": 1044,
      "you,▁": 1045,
      ".▁Her▁": 1046,
      "loved▁to▁play▁": 1047,
      "in▁the▁park": 1048,
      "in▁her▁": 1049,
      "feel▁": 1050,
      "Her▁": 1051,
      "time▁": 1052,
      ".▁We▁": 1053,
      "far": 1054,
      "bro": 1055,
      "lid": 1056,
      "te": 1057,
      "nice▁": 1058,
      "â€™": 1059,
      "From▁that▁day▁on,▁": 1060,
      "house": 1061,
      "are▁": 1062,
      "mom▁and▁": 1063,
      "nodd": 1064,
      ".▁His▁": 1065,
      "kept▁": 1066,
      "▁an▁": 1067,
      "fir": 1068,
      ".\n\nBut▁": 1069,
      "sha": 1070,
      "ous▁": 1071,
      "garden": 1072,
      ".▁She▁was▁": 1073,
      "ing▁a▁": 1074,
      "said,▁": 1075,
      "whil": 1076,
      "loud▁": 1077,
      "nex": 1078,
      "si": 1079,
      "made▁a▁": 1080,
      "to▁a▁": 1081,
      "clim": 1082,
      "heard▁a▁": 1083,
      "know": 1084,
      "to▁her▁": 1085,
      "have▁to▁": 1086,
      "ru": 1087,
      ",▁so▁": 1088,
      "won": 1089,
      "▁Once▁upon▁a▁time,▁there▁was▁a▁little▁girl▁named▁Lily.▁She▁": 1090,
      "saw▁a▁big▁": 1091,
      "kind▁": 1092,
      "beautiful▁": 1093,
      "gu": 1094,
      "spo": 1095,
      "ink▁": 1096,
      "slid": 1097,
      "took▁": 1098,
      "called▁": 1099,
      "idea": 1100,
      "color": 1101,
      "sad▁and▁": 1102,
      "happen": 1103,
      "cha": 1104,
      "always▁": 1105,
      "Max": 1106,
      "Thank▁": 1107,
      "e▁was▁": 1108,
      "to▁play▁": 1109,
      "mem": 1110,
      "is▁a▁": 1111,
      "diff": 1112,
      "we": 1113,
      "lock": 1114,
      "oud": 1115,
      "▁advent": 1116,
      "gam": 1117,
      "▁and▁said,▁\"": 1118,
      "our▁": 1119,
      "vo": 1120,
      "ybe▁": 1121,
      "s.▁One▁day,▁": 1122,
      "own": 1123,
      "water": 1124,
      "self": 1125,
      "bear▁": 1126,
      ".▁It▁is▁": 1127,
      "plan": 1128,
      "fter": 1129,
      "brea": 1130,
      "t▁of▁": 1131,
      "people▁": 1132,
      "notic": 1133,
      "?▁": 1134,
      "cook": 1135,
      "del": 1136,
      "year": 1137,
      "it's▁": 1138,
      "blu": 1139,
      "remem": 1140,
      "new": 1141,
      "gla": 1142,
      "door": 1143,
      "pli": 1144,
      "under": 1145,
      "up▁the▁": 1146,
      "ortan": 1147,
      "importan": 1148,
      "enjo": 1149,
      "No,▁": 1150,
      "red▁": 1151,
      "real": 1152,
      "nic": 1153,
      "reach": 1154,
      "re▁": 1155,
      "squ": 1156,
      "hugged▁": 1157,
      "my▁and▁": 1158,
      "feeling▁": 1159,
      "tal": 1160,
      "ello": 1161,
      "scared": 1162,
      "h▁": 1163,
      ",▁she▁": 1164,
      "cla": 1165,
      "What▁": 1166,
      "eat": 1167,
      "listen": 1168,
      "uck▁": 1169,
      "look▁": 1170,
      "better": 1171,
      "shout": 1172,
      "eat▁": 1173,
      "Look": 1174,
      "itch": 1175,
      "noise": 1176,
      "repli": 1177,
      "y▁to▁": 1178,
      "se▁and▁": 1179,
      "cat▁": 1180,
      "▁hom": 1181,
      "rabb": 1182,
      "being▁": 1183,
      "cri": 1184,
      "quick": 1185,
      "bel": 1186,
      "next▁": 1187,
      "in▁his▁": 1188,
      "fly": 1189,
      "oka": 1190,
      "tou": 1191,
      "ight▁": 1192,
      "Do▁": 1193,
      "rock": 1194,
      "saf": 1195,
      "ter": 1196,
      "row": 1197,
      "en▁the▁": 1198,
      "tter▁": 1199,
      "together▁": 1200,
      "she▁had▁": 1201,
      "ground": 1202,
      "see▁the▁": 1203,
      "differ": 1204,
      "brok": 1205,
      "car▁": 1206,
      "cream": 1207,
      "ss▁": 1208,
      "Jan": 1209,
      ".▁And▁": 1210,
      "wonder": 1211,
      "mon": 1212,
      "brigh": 1213,
      "▁all▁the▁": 1214,
      "fol": 1215,
      "an▁to▁": 1216,
      "to▁his▁": 1217,
      "chil": 1218,
      "de": 1219,
      "that▁he▁": 1220,
      "long▁": 1221,
      "doll": 1222,
      "sle": 1223,
      "long": 1224,
      "cry": 1225,
      "▁around▁the▁": 1226,
      "near": 1227,
      "ball▁": 1228,
      "ever": 1229,
      "hed": 1230,
      "▁away▁": 1231,
      "high": 1232,
      "wr": 1233,
      "e.\n\n": 1234,
      "her▁mom▁": 1235,
      "su": 1236,
      "goodby": 1237,
      "big,▁": 1238,
      "started▁": 1239,
      "curi": 1240,
      "win": 1241,
      "need": 1242,
      "sad▁": 1243,
      "y,▁a▁": 1244,
      "on▁her▁": 1245,
      "ces": 1246,
      "▁angr": 1247,
      "Lucy▁": 1248,
      "became▁": 1249,
      "proud▁of": 1250,
      ",▁he▁": 1251,
      "John▁": 1252,
      "brave▁": 1253,
      "ie": 1254,
      "hear": 1255,
      "▁Once▁there▁was▁a▁": 1256,
      "Do▁you▁": 1257,
      "say▁": 1258,
      "laughed▁and▁": 1259,
      "Maybe▁": 1260,
      "hat's▁": 1261,
      "it▁to▁": 1262,
      "e.": 1263,
      "go▁to▁the▁": 1264,
      "y.▁They▁": 1265,
      "animal": 1266,
      "s.▁\"": 1267,
      "tin": 1268,
      "ger": 1269,
      "fav": 1270,
      ",▁but▁he▁": 1271,
      "dro": 1272,
      "et▁and▁": 1273,
      "walked▁": 1274,
      "s▁were▁": 1275,
      "sun▁": 1276,
      "rough": 1277,
      "e.▁The▁": 1278,
      "great▁": 1279,
      "climb": 1280,
      ".▁You▁are▁": 1281,
      "lot▁of▁": 1282,
      "that▁the▁": 1283,
      "she▁could▁": 1284,
      "maz": 1285,
      "flo": 1286,
      "cro": 1287,
      ".▁Then▁": 1288,
      "they▁had▁": 1289,
      "Su": 1290,
      "asked▁": 1291,
      "follow": 1292,
      "bun": 1293,
      "grabb": 1294,
      "Jack": 1295,
      "make▁a▁": 1296,
      "put▁the▁": 1297,
      "swe": 1298,
      ".\"▁\n\n": 1299,
      "ti": 1300,
      "sof": 1301,
      "mag": 1302,
      "ry▁": 1303,
      "on▁his▁": 1304,
      "yed▁": 1305,
      "fro": 1306,
      "bear": 1307,
      "And▁": 1308,
      ":▁": 1309,
      ".\n\nLily▁": 1310,
      "!▁He▁": 1311,
      "ligh": 1312,
      "ow,▁": 1313,
      "end.": 1314,
      "beg": 1315,
      "ell▁": 1316,
      "ever▁": 1317,
      "min": 1318,
      "cor": 1319,
      "down▁": 1320,
      "veryone▁": 1321,
      "ati": 1322,
      "Th": 1323,
      "kitch": 1324,
      "realiz": 1325,
      "fish": 1326,
      "stop": 1327,
      "dad": 1328,
      "less": 1329,
      "bl": 1330,
      "was▁so▁happy▁": 1331,
      "▁amaz": 1332,
      "ous": 1333,
      "looked▁at▁": 1334,
      "out▁of▁the▁": 1335,
      "â€▁": 1336,
      "One▁day▁": 1337,
      "block": 1338,
      "wait": 1339,
      "Don't▁": 1340,
      "ed.▁They▁": 1341,
      "yum": 1342,
      "hop": 1343,
      "so▁much▁": 1344,
      "little▁boy▁named▁": 1345,
      "It's▁": 1346,
      "mes": 1347,
      "Anna": 1348,
      "bal": 1349,
      "sure▁": 1350,
      "Mommy▁": 1351,
      "zz": 1352,
      "e,▁but▁": 1353,
      "hard▁": 1354,
      "ate▁": 1355,
      "plea": 1356,
      "es▁to▁": 1357,
      "▁how▁": 1358,
      "looking▁": 1359,
      "butter": 1360,
      "dow": 1361,
      "sna": 1362,
      "keep▁": 1363,
      "fly▁": 1364,
      "does▁": 1365,
      "ly▁and▁": 1366,
      "Spo": 1367,
      "only▁": 1368,
      "▁hug": 1369,
      "▁animal": 1370,
      "stick": 1371,
      "ster": 1372,
      "over": 1373,
      "then,▁": 1374,
      "bad▁": 1375,
      "▁One▁da": 1376,
      "everyone▁": 1377,
      "'s▁mom▁": 1378,
      "est▁": 1379,
      "walking▁": 1380,
      "der▁": 1381,
      "my,▁": 1382,
      "learned▁that▁": 1383,
      ".▁Suddenly,▁": 1384,
      ".▁Tim▁": 1385,
      "favor": 1386,
      "hid": 1387,
      "His▁": 1388,
      "forest": 1389,
      "outside▁": 1390,
      "din": 1391,
      "ed.\n\n\"": 1392,
      "through": 1393,
      "tree▁": 1394,
      "kid": 1395,
      "been▁": 1396,
      "underst": 1397,
      "remember": 1398,
      "box▁": 1399,
      "quickly▁": 1400,
      "mi": 1401,
      "y▁was▁": 1402,
      ".\"\n\nThe▁": 1403,
      "clean": 1404,
      "glad▁": 1405,
      "try": 1406,
      "to▁do": 1407,
      "Ben▁and▁": 1408,
      "bow": 1409,
      "in▁the▁sk": 1410,
      "pret": 1411,
      "▁adventure": 1412,
      "woo": 1413,
      "ture": 1414,
      "tak": 1415,
      "'re▁": 1416,
      "thanked▁the▁": 1417,
      "said,▁\"I▁": 1418,
      "you▁can▁": 1419,
      "much": 1420,
      "different▁": 1421,
      "magic": 1422,
      "Anna▁and▁": 1423,
      "Sara▁": 1424,
      "!▁She▁": 1425,
      "rain": 1426,
      "like▁to▁": 1427,
      "parent": 1428,
      "dri": 1429,
      "three▁": 1430,
      "ally,▁": 1431,
      "▁a▁big▁": 1432,
      "when▁she▁": 1433,
      "shiny▁": 1434,
      "favorite▁": 1435,
      "know▁what▁": 1436,
      "!\"": 1437,
      "s,▁and▁": 1438,
      "That▁": 1439,
      "prom": 1440,
      "y,▁but▁": 1441,
      "really▁": 1442,
      "stay▁": 1443,
      "friends.▁They▁": 1444,
      "flew▁": 1445,
      "▁asked▁": 1446,
      "little▁girl": 1447,
      "grand": 1448,
      "whi": 1449,
      "back▁to▁the▁": 1450,
      "go▁hom": 1451,
      "ward": 1452,
      "went▁to▁": 1453,
      ".▁He▁wanted▁to▁": 1454,
      "sound": 1455,
      "asked▁her▁": 1456,
      "Thank▁you,▁": 1457,
      "water▁": 1458,
      "ran▁to▁the▁": 1459,
      "delic": 1460,
      "tast": 1461,
      "pull": 1462,
      "scared▁and▁": 1463,
      "share▁": 1464,
      ".▁Tom▁": 1465,
      ".▁When▁": 1466,
      "ed▁it": 1467,
      "fo": 1468,
      "illy▁": 1469,
      "ted": 1470,
      "said,▁â€œ": 1471,
      "Mar": 1472,
      "think": 1473,
      "try▁": 1474,
      "ad": 1475,
      "with▁their▁": 1476,
      "strong": 1477,
      "time▁to▁": 1478,
      "pro": 1479,
      "sho": 1480,
      "Can▁I▁": 1481,
      "tea": 1482,
      "it▁is▁": 1483,
      "special": 1484,
      "le▁and▁": 1485,
      "says.▁\"": 1486,
      "▁also▁": 1487,
      ".\n\nHe▁": 1488,
      "led▁": 1489,
      "▁are▁you▁": 1490,
      "ner": 1491,
      "head": 1492,
      "\n\nThe▁": 1493,
      "scared▁": 1494,
      "things": 1495,
      "back▁to▁": 1496,
      "Fin": 1497,
      "sleep": 1498,
      "they▁could▁": 1499,
      "cooki": 1500,
      "Bob▁": 1501,
      "▁him▁": 1502,
      "mis": 1503,
      "ma▁": 1504,
      "buil": 1505,
      "night": 1506,
      "blue▁": 1507,
      "mean": 1508,
      "read▁": 1509,
      "put▁it▁": 1510,
      "family▁": 1511,
      "we▁can▁": 1512,
      "toys▁and▁": 1513,
      "the▁best▁": 1514,
      "prin": 1515,
      "runn": 1516,
      "ves▁": 1517,
      "wel": 1518,
      "again": 1519,
      "picked▁": 1520,
      "it▁was": 1521,
      ",▁but▁she▁": 1522,
      "bor": 1523,
      "when▁he▁": 1524,
      "s▁in▁the▁": 1525,
      "ry,▁": 1526,
      "talk": 1527,
      "wear": 1528,
      ".▁Every▁": 1529,
      "Lily▁and▁Ben▁": 1530,
      "beh": 1531,
      "wer": 1532,
      "jumped▁": 1533,
      "kind": 1534,
      "ce▁and▁": 1535,
      "surpris": 1536,
      "picture": 1537,
      "flew": 1538,
      "▁and▁a▁": 1539,
      "table": 1540,
      "does▁not▁": 1541,
      "swim": 1542,
      "pretty▁": 1543,
      "happil": 1544,
      "let▁": 1545,
      ".\n\n\"H": 1546,
      "wn▁": 1547,
      "let's▁": 1548,
      "Dais": 1549,
      "!\"▁Lily▁": 1550,
      "Jim": 1551,
      "opened▁the▁": 1552,
      "off▁": 1553,
      "careful▁": 1554,
      "smiled▁": 1555,
      ",▁they▁": 1556,
      "ed.\n\n": 1557,
      "says▁": 1558,
      "bit▁": 1559,
      "▁about▁the▁": 1560,
      "toys": 1561,
      "Mia": 1562,
      "Her▁mom▁": 1563,
      "one▁da": 1564,
      "truck": 1565,
      "am▁": 1566,
      "them▁and▁": 1567,
      "▁awa": 1568,
      "like▁a▁": 1569,
      "stre": 1570,
      "began▁to▁": 1571,
      "fill": 1572,
      "fter▁a▁": 1573,
      "told▁her▁": 1574,
      "take▁a▁": 1575,
      "took▁the▁": 1576,
      "cast": 1577,
      "sing": 1578,
      "held▁": 1579,
      "years▁": 1580,
      "swing": 1581,
      "outside▁and▁": 1582,
      ",\"▁said▁": 1583,
      "ready▁": 1584,
      "it▁was▁too▁": 1585,
      "gg": 1586,
      ".▁She▁wanted▁to▁": 1587,
      "ed.▁\"": 1588,
      "mil": 1589,
      "gent": 1590,
      "irt": 1591,
      "his▁mom▁": 1592,
      "shel": 1593,
      "hurt▁": 1594,
      "tting▁": 1595,
      "thanked▁": 1596,
      "why▁": 1597,
      "big▁and▁": 1598,
      "fish▁": 1599,
      "▁anymor": 1600,
      "kitchen": 1601,
      "Look,▁": 1602,
      "te▁": 1603,
      "she": 1604,
      "show▁": 1605,
      "Lily▁was▁": 1606,
      "floor": 1607,
      "ste": 1608,
      "put": 1609,
      "?\"": 1610,
      "nd▁and▁": 1611,
      "going▁": 1612,
      "▁around": 1613,
      "said▁\"": 1614,
      "ag": 1615,
      ",▁and▁the▁": 1616,
      "ious▁": 1617,
      "wanted▁": 1618,
      "Lily,▁": 1619,
      "stran": 1620,
      "keep": 1621,
      "This▁": 1622,
      "ddy▁": 1623,
      "before▁": 1624,
      "childr": 1625,
      ".▁\n\nA": 1626,
      "sees▁": 1627,
      "Mol": 1628,
      "▁am▁": 1629,
      "out▁the▁": 1630,
      "dis": 1631,
      "looked▁around▁": 1632,
      "bed": 1633,
      "bug": 1634,
      "can't▁": 1635,
      "mar": 1636,
      "like▁the▁": 1637,
      "Dad▁": 1638,
      "▁app": 1639,
      "wished▁": 1640,
      "farm": 1641,
      "contin": 1642,
      "continu": 1643,
      ".▁So▁": 1644,
      "ie▁": 1645,
      "soon▁": 1646,
      "had▁to▁": 1647,
      "for▁help": 1648,
      "was▁so▁happy▁and▁": 1649,
      "sand": 1650,
      ".▁B": 1651,
      "behind▁": 1652,
      "ed▁their▁": 1653,
      "need▁to▁": 1654,
      "From▁then▁": 1655,
      "touch": 1656,
      "soon": 1657,
      "see▁what▁": 1658,
      "!▁The▁": 1659,
      ".▁She▁said,▁\"": 1660,
      "fla": 1661,
      "down▁the▁": 1662,
      "ome▁": 1663,
      "times▁": 1664,
      "rid": 1665,
      "Jane▁": 1666,
      "wood": 1667,
      "replied,▁\"": 1668,
      "it.▁He▁": 1669,
      "coming▁": 1670,
      "window": 1671,
      "slow": 1672,
      "down▁and▁": 1673,
      "first": 1674,
      "hun": 1675,
      "having▁": 1676,
      "through▁the▁": 1677,
      "sorry▁": 1678,
      "curiou": 1679,
      "he▁would▁": 1680,
      "liked▁to▁play▁": 1681,
      "sat▁": 1682,
      "there▁were▁": 1683,
      ".▁From▁that▁day▁on,▁": 1684,
      "l▁of▁": 1685,
      "s.\n\n\"": 1686,
      "ed▁with▁": 1687,
      ".\n\nWhen▁": 1688,
      "s.▁The▁": 1689,
      "right": 1690,
      "pen": 1691,
      "friends▁and▁": 1692,
      "bunny▁": 1693,
      "on▁the▁ground": 1694,
      "hair": 1695,
      "place▁": 1696,
      "â€™s▁": 1697,
      "under▁": 1698,
      ".▁In": 1699,
      ".\n\nShe▁": 1700,
      "better▁": 1701,
      "irre": 1702,
      "sorry,▁": 1703,
      "have▁fun": 1704,
      "hard": 1705,
      "bad": 1706,
      "want": 1707,
      "looked▁at▁the▁": 1708,
      "fini": 1709,
      "room▁": 1710,
      "coun": 1711,
      "Wow,▁": 1712,
      "to▁make▁": 1713,
      "is▁not▁": 1714,
      "see▁a▁": 1715,
      ".▁N": 1716,
      "warm": 1717,
      "fell▁": 1718,
      "hopped▁": 1719,
      "safe": 1720,
      "fur": 1721,
      "said.\n\n\"": 1722,
      "listen▁": 1723,
      "thought": 1724,
      "stopped▁": 1725,
      "boy": 1726,
      "any": 1727,
      "food": 1728,
      "rabbit▁": 1729,
      "of▁a▁": 1730,
      "s.": 1731,
      "an▁idea": 1732,
      "Sara▁and▁": 1733,
      "ould": 1734,
      "From▁then▁on,▁": 1735,
      "pon": 1736,
      "▁and▁he▁": 1737,
      "So▁": 1738,
      "waved▁": 1739,
      "▁Once▁upon▁a▁time,▁there▁was▁a▁little▁boy▁named▁": 1740,
      "it.▁She▁": 1741,
      "lived▁in▁a▁": 1742,
      "find▁a▁": 1743,
      "fair": 1744,
      "squirre": 1745,
      "has▁a▁": 1746,
      "shi": 1747,
      "now▁": 1748,
      "self▁": 1749,
      "stopp": 1750,
      "Gran": 1751,
      "voice▁": 1752,
      ".\"\n\nThey▁": 1753,
      ",▁I▁": 1754,
      "enough": 1755,
      "vis": 1756,
      ".▁I'": 1757,
      "back▁hom": 1758,
      "wrong": 1759,
      "pil": 1760,
      "part": 1761,
      "do▁not▁": 1762,
      "house▁": 1763,
      ".▁So,▁": 1764,
      "knew▁that▁": 1765,
      "ought▁": 1766,
      "worked▁": 1767,
      "clean▁": 1768,
      "story▁": 1769,
      "morn": 1770,
      "want▁": 1771,
      "OK": 1772,
      "will▁be▁": 1773,
      "cand": 1774,
      "fru": 1775,
      "ught": 1776,
      "it▁was▁a▁": 1777,
      "One▁": 1778,
      "ing▁her▁": 1779,
      "toys▁": 1780,
      "boat": 1781,
      "boy▁named▁": 1782,
      "Timmy.▁Timmy▁": 1783,
      ",\"": 1784,
      "cc": 1785,
      ":▁\"": 1786,
      "wants▁": 1787,
      "bi": 1788,
      "fire": 1789,
      "Sarah▁": 1790,
      "tell▁": 1791,
      "Tim▁and▁": 1792,
      "had▁a▁big▁": 1793,
      "small": 1794,
      "old": 1795,
      ".▁She▁said▁": 1796,
      "care▁": 1797,
      "cheer": 1798,
      "ber▁": 1799,
      "nodded▁and▁": 1800,
      "ek": 1801,
      "red": 1802,
      "three▁years▁": 1803,
      "was▁so▁happy": 1804,
      "choo": 1805,
      "Grand": 1806,
      "to▁help": 1807,
      "lady▁": 1808,
      "pick▁": 1809,
      "fre": 1810,
      "se,▁": 1811,
      "ure▁": 1812,
      "Finally,▁": 1813,
      "ant▁": 1814,
      "'s▁a▁": 1815,
      "dream": 1816,
      "pupp": 1817,
      "said.\n\n": 1818,
      ".\"\n\nLily▁": 1819,
      "wing": 1820,
      "ect▁": 1821,
      "Can▁we▁": 1822,
      "Ju": 1823,
      "leav": 1824,
      "ss▁and▁": 1825,
      "her▁a▁": 1826,
      "you▁are▁": 1827,
      "!▁I▁": 1828,
      "together▁and▁": 1829,
      "s.\n\n": 1830,
      "ph": 1831,
      "▁agre": 1832,
      "snow": 1833,
      "while▁": 1834,
      "were▁playing▁": 1835,
      "word": 1836,
      "ed▁to▁the▁": 1837,
      "danc": 1838,
      "What": 1839,
      "mouse▁": 1840,
      "she▁would▁": 1841,
      "perf": 1842,
      "going▁to▁": 1843,
      "hurt": 1844,
      "Every▁": 1845,
      "think▁": 1846,
      "has▁": 1847,
      "did▁not▁want▁to▁": 1848,
      "qui": 1849,
      "was▁very▁excit": 1850,
      "able▁": 1851,
      "was▁not▁": 1852,
      "walk▁": 1853,
      "home▁": 1854,
      "ka": 1855,
      "old▁and▁": 1856,
      "oke▁": 1857,
      "in▁the▁garden": 1858,
      "mus": 1859,
      ".▁They▁had▁": 1860,
      "ely▁": 1861,
      "than▁": 1862,
      "mommy": 1863,
      "in▁and▁": 1864,
      "most▁": 1865,
      "tree": 1866,
      ".▁He▁had▁": 1867,
      "mum▁": 1868,
      "ent▁and▁": 1869,
      "Joe▁": 1870,
      "explore▁the▁": 1871,
      "for▁her▁": 1872,
      "said▁goodby": 1873,
      "someone▁": 1874,
      "ster▁": 1875,
      "ballo": 1876,
      "read": 1877,
      "That's▁": 1878,
      "their": 1879,
      "it▁was▁time▁to▁": 1880,
      "cake▁": 1881,
      "s▁he▁": 1882,
      "Don't▁wor": 1883,
      "clothe": 1884,
      "dirt": 1885,
      "tree▁and▁": 1886,
      "Do▁you▁want▁to▁": 1887,
      "y,▁\"": 1888,
      "getting▁": 1889,
      "sig": 1890,
      ".\n\nSuddenly,▁": 1891,
      "also▁": 1892,
      "ellow▁": 1893,
      "!\"▁Ben▁": 1894,
      "hungr": 1895,
      "didn't▁want▁to▁": 1896,
      "▁after▁": 1897,
      "ing▁in▁the▁": 1898,
      "yellow▁": 1899,
      "▁again.": 1900,
      ".▁Her▁mom▁": 1901,
      "sear": 1902,
      "saw▁something▁": 1903,
      "-▁": 1904,
      "bright▁": 1905,
      "took▁a▁": 1906,
      "few▁": 1907,
      "looks▁": 1908,
      "all▁the▁": 1909,
      "back▁and▁": 1910,
      "angr": 1911,
      "realized▁that▁": 1912,
      "room▁and▁": 1913,
      "full▁of▁": 1914,
      "enjoy": 1915,
      "green▁": 1916,
      "ft▁": 1917,
      ".\"\n\n\"": 1918,
      "â€\n\n": 1919,
      "on▁it": 1920,
      "ice": 1921,
      ".▁Sar": 1922,
      "ine▁": 1923,
      "wonderful▁": 1924,
      "Sue▁": 1925,
      "buy▁": 1926,
      "face": 1927,
      "Mam": 1928,
      "ood▁": 1929,
      "stayed▁": 1930,
      "piec": 1931,
      "on▁and▁": 1932,
      "bar": 1933,
      "forgo": 1934,
      ".▁The▁end.": 1935,
      "Mom▁and▁": 1936,
      "something": 1937,
      "so▁he▁": 1938,
      "every▁day": 1939,
      "tru": 1940,
      "top▁": 1941,
      "of▁her▁": 1942,
      "learn▁": 1943,
      "met": 1944,
      "making▁": 1945,
      "him▁a▁": 1946,
      "sy▁": 1947,
      "yard": 1948,
      "▁arm": 1949,
      "teach": 1950,
      "disa": 1951,
      "important▁to▁": 1952,
      "proud▁of▁": 1953,
      "s▁and▁the▁": 1954,
      "was▁always▁": 1955,
      "luff": 1956,
      "would▁be▁": 1957,
      "Bob": 1958,
      "danger": 1959,
      "old▁man▁": 1960,
      "ran▁to▁": 1961,
      "music": 1962,
      "app": 1963,
      "s▁she▁": 1964,
      "pictur": 1965,
      "truck▁": 1966,
      "they▁are▁": 1967,
      "over▁the▁": 1968,
      "top": 1969,
      "stea": 1970,
      "saw▁that▁": 1971,
      "sc": 1972,
      "for▁you": 1973,
      "ny": 1974,
      "into▁": 1975,
      ".▁\n\n\"": 1976,
      "th▁and▁": 1977,
      "toward": 1978,
      "fiel": 1979,
      "ello,▁": 1980,
      "of▁his▁": 1981,
      "es.▁They▁": 1982,
      ".▁It's▁": 1983,
      "song": 1984,
      "ser": 1985,
      "s▁they▁": 1986,
      "!\"▁\n\n": 1987,
      "cut": 1988,
      "e.▁But▁": 1989,
      "funny▁": 1990,
      "air": 1991,
      "on▁the▁floor": 1992,
      "yummy▁": 1993,
      "helped▁": 1994,
      "fix": 1995,
      "stu": 1996,
      "cool": 1997,
      "▁ano": 1998,
      "pur": 1999,
      "spark": 2000,
      "set": 2001,
      ".▁Then,▁": 2002,
      "duck": 2003,
      "!\"\n\nThe▁": 2004,
      "mum": 2005,
      "Ben▁are▁": 2006,
      "they▁all▁": 2007,
      ",▁but▁the▁": 2008,
      "beautiful": 2009,
      "plain": 2010,
      "felt▁so▁": 2011,
      "around": 2012,
      "worri": 2013,
      "es.▁She▁": 2014,
      "right▁": 2015,
      "run▁": 2016,
      "John": 2017,
      "happy.": 2018,
      ",\"▁Lily▁": 2019,
      "land": 2020,
      "oun": 2021,
      "One▁day,▁a▁": 2022,
      "him▁and▁": 2023,
      "Come▁": 2024,
      "e,▁the▁": 2025,
      "?\"\n\nThe▁": 2026,
      "inside": 2027,
      "happened": 2028,
      ".▁Everyone▁": 2029,
      "promis": 2030,
      "happily▁": 2031,
      "bag": 2032,
      "teddy▁": 2033,
      ".▁There▁": 2034,
      "bla": 2035,
      ",\"▁she▁": 2036,
      "own▁": 2037,
      "mea": 2038,
      "cho": 2039,
      "there": 2040,
      "finally▁": 2041,
      "Oka": 2042,
      ".▁Max▁": 2043,
      "ive▁": 2044,
      "uddenly▁": 2045,
      "wind▁": 2046,
      "said▁y": 2047,
      "pra": 2048,
      ".▁The▁bird▁": 2049,
      "time": 2050,
      "moral▁": 2051,
      "Benny▁": 2052,
      "ed▁to▁be▁": 2053,
      "day.▁": 2054,
      "boat▁": 2055,
      "living▁": 2056,
      "tir": 2057,
      "lost▁": 2058,
      "pack": 2059,
      "ger▁": 2060,
      "dark": 2061,
      "▁Once▁upon▁a▁time,▁there▁was▁a▁little▁girl▁named▁Lily.▁She▁loved▁to▁play▁": 2062,
      "▁One▁day,▁a▁": 2063,
      "Jen": 2064,
      "paint": 2065,
      ".▁She▁had▁": 2066,
      "it,▁": 2067,
      "showed▁": 2068,
      "brave▁and▁": 2069,
      "Tommy▁": 2070,
      ".▁\n\nS": 2071,
      "light": 2072,
      "ground▁": 2073,
      "drag": 2074,
      "he▁wanted▁to▁": 2075,
      "▁arri": 2076,
      "▁hou": 2077,
      "e.▁One▁day,▁": 2078,
      "her▁and▁": 2079,
      "ed▁something▁": 2080,
      "play▁with▁the▁": 2081,
      "said,▁\"Yes,▁": 2082,
      ".▁One▁day,▁she▁": 2083,
      "smiled": 2084,
      "bran": 2085,
      "cket": 2086,
      "tail": 2087,
      "▁how▁to▁": 2088,
      "might▁": 2089,
      "mone": 2090,
      "smell": 2091,
      "Lily's▁mom▁": 2092,
      "brother": 2093,
      "told▁him▁": 2094,
      "tight": 2095,
      "mov": 2096,
      "pond": 2097,
      "happy.▁They▁": 2098,
      "smar": 2099,
      "carefully▁": 2100,
      "y.": 2101,
      "ng▁": 2102,
      "thank▁": 2103,
      "grate": 2104,
      "bout▁": 2105,
      "baby▁": 2106,
      "Molly▁": 2107,
      "felt▁very▁": 2108,
      "uddenly": 2109,
      "bott": 2110,
      ",▁so▁he▁": 2111,
      "belie": 2112,
      "grass": 2113,
      "proud": 2114,
      "You're▁": 2115,
      "very▁much": 2116,
      "heav": 2117,
      "Lila▁": 2118,
      "!▁It▁": 2119,
      "row▁": 2120,
      "s▁of▁": 2121,
      "closer▁": 2122,
      "ice▁cream": 2123,
      "ouldn't▁": 2124,
      "home,▁": 2125,
      "ez": 2126,
      "wait▁to▁": 2127,
      "break": 2128,
      "reli": 2129,
      "creat": 2130,
      "fall": 2131,
      "la▁": 2132,
      "flower▁": 2133,
      "wall": 2134,
      "girl▁named▁": 2135,
      "oran": 2136,
      "water▁and▁": 2137,
      "pe▁": 2138,
      "blan": 2139,
      "kis": 2140,
      "trea": 2141,
      ".▁They▁all▁": 2142,
      "until": 2143,
      "▁around▁and▁": 2144,
      "Mr": 2145,
      "heard▁a▁loud▁": 2146,
      "hor": 2147,
      "Everyone▁": 2148,
      "▁another▁": 2149,
      "big▁hug": 2150,
      "spla": 2151,
      "then": 2152,
      "laug": 2153,
      "bark": 2154,
      "laughed": 2155,
      "pink▁": 2156,
      "they▁got▁": 2157,
      "turned▁": 2158,
      "▁Once▁upon▁a▁time,▁there▁was▁a▁little▁": 2159,
      "don": 2160,
      ".▁The▁dog▁": 2161,
      "says.\n\n\"": 2162,
      "scream": 2163,
      "ch▁it": 2164,
      "princes": 2165,
      "!\"▁Tom▁": 2166,
      "say,▁\"": 2167,
      "▁able▁": 2168,
      "your": 2169,
      "close▁": 2170,
      "found▁the▁": 2171,
      "hill": 2172,
      "bath": 2173,
      "fra": 2174,
      "ch▁and▁": 2175,
      "cover": 2176,
      "push": 2177,
      "ch▁a▁": 2178,
      ".▁I'm▁": 2179,
      "Timmy's▁": 2180,
      "monke": 2181,
      "Don't▁worry,▁": 2182,
      ",\"▁Ben▁": 2183,
      ".▁Tom": 2184,
      "so▁she▁": 2185,
      "food▁": 2186,
      "roll": 2187,
      "ve▁the▁": 2188,
      "climbed▁": 2189,
      "Tom▁and▁Lily▁": 2190,
      "picture▁": 2191,
      "were▁very▁": 2192,
      "Mom,▁": 2193,
      "I▁am▁": 2194,
      "world": 2195,
      "sli": 2196,
      "asked▁his▁": 2197,
      "thought▁it▁": 2198,
      "there▁were▁two▁": 2199,
      "playing": 2200,
      "lesson": 2201,
      "please": 2202,
      "des": 2203,
      "'s": 2204,
      "by▁the▁": 2205,
      "Mommy,▁": 2206,
      "set▁": 2207,
      "in▁their▁": 2208,
      "Mum": 2209,
      "sail": 2210,
      "disapp": 2211,
      "went": 2212,
      "around▁the▁": 2213,
      "reached▁": 2214,
      "fight": 2215,
      "twin": 2216,
      "butt": 2217,
      "loud": 2218,
      "day▁and▁": 2219,
      "je": 2220,
      "har": 2221,
      "sed▁": 2222,
      "near▁the▁": 2223,
      ".▁It▁was▁so▁": 2224,
      "sweet": 2225,
      "pretend▁": 2226,
      "picked▁it▁": 2227,
      "safe▁": 2228,
      "low▁": 2229,
      "didn't▁know▁what▁": 2230,
      "I▁don't▁": 2231,
      "treat": 2232,
      "pap": 2233,
      "see": 2234,
      ",▁and▁he▁": 2235,
      "y.▁The▁": 2236,
      "swa": 2237,
      "ban": 2238,
      "liked▁": 2239,
      "Just▁": 2240,
      "pet": 2241,
      "was▁happy▁": 2242,
      "friends.▁": 2243,
      ".▁This▁": 2244,
      "stra": 2245,
      "excited▁to▁": 2246,
      ".▁\n\nOne▁day,▁": 2247,
      "came▁to▁": 2248,
      "castle": 2249,
      "stepped▁": 2250,
      "garden▁": 2251,
      "y.\n\n": 2252,
      "kind▁and▁": 2253,
      "Plea": 2254,
      "Sure": 2255,
      "mommy▁and▁": 2256,
      "mother▁": 2257,
      "Anna▁and▁Ben▁": 2258,
      "Daisy▁": 2259,
      "mir": 2260,
      "welcom": 2261,
      "friends.": 2262,
      "sometimes▁": 2263,
      "doct": 2264,
      "tell": 2265,
      "What▁is▁": 2266,
      "seen": 2267,
      "each▁other▁and▁": 2268,
      "off▁the▁": 2269,
      "chan": 2270,
      "cold▁": 2271,
      "this": 2272,
      "surprise": 2273,
      "'t": 2274,
      "look▁at▁": 2275,
      "for▁his▁": 2276,
      "parents▁": 2277,
      "pot▁": 2278,
      "was▁so▁happy▁to▁": 2279,
      "they▁would▁": 2280,
      "bit": 2281,
      "I▁can▁": 2282,
      "elep": 2283,
      "!\n\nThe▁": 2284,
      "rest": 2285,
      "was▁too▁": 2286,
      ",▁Lily": 2287,
      "went▁to▁the▁park▁": 2288,
      "under▁the▁": 2289,
      "ni": 2290,
      "es.▁He▁": 2291,
      "▁are▁you▁do": 2292,
      "explain": 2293,
      "carro": 2294,
      ".▁That▁": 2295,
      "dress": 2296,
      "dinner": 2297,
      "hold": 2298,
      "ing▁his▁": 2299,
      "cel": 2300,
      "schoo": 2301,
      "brother▁": 2302,
      "itten": 2303,
      ".▁W": 2304,
      "s▁it▁": 2305,
      "smile▁": 2306,
      "who▁was▁": 2307,
      "cour": 2308,
      "His▁mom▁": 2309,
      "pretend": 2310,
      "ched▁": 2311,
      ".▁Let's▁": 2312,
      "alth": 2313,
      "next▁day,▁": 2314,
      "draw": 2315,
      "sil": 2316,
      "!▁\n\n": 2317,
      "with▁him": 2318,
      "had▁a▁lot▁of▁": 2319,
      "for▁a▁mom": 2320,
      "eyes▁and▁": 2321,
      "looked▁around▁and▁": 2322,
      "Billy▁": 2323,
      ".▁He▁said,▁\"": 2324,
      "a▁good▁": 2325,
      "tall▁": 2326,
      "believe▁": 2327,
      "wher": 2328,
      ".▁I▁will▁": 2329,
      "when": 2330,
      "table▁": 2331,
      "bask": 2332,
      ".▁But▁the▁": 2333,
      "▁asked▁her▁": 2334,
      "important▁": 2335,
      "pea": 2336,
      "igg": 2337,
      "her▁mommy▁": 2338,
      "ugg": 2339,
      "Ro": 2340,
      "world▁": 2341,
      "â€™t▁": 2342,
      "inside▁the▁": 2343,
      "es▁a▁": 2344,
      "moral▁of▁the▁": 2345,
      "lar": 2346,
      "wants▁to▁": 2347,
      "gain▁": 2348,
      "do▁you▁": 2349,
      "hone": 2350,
      "Pet": 2351,
      "white▁": 2352,
      "lun": 2353,
      "with▁a▁big▁": 2354,
      "paper": 2355,
      "coo": 2356,
      "i▁": 2357,
      "cray": 2358,
      "likes▁": 2359,
      "warm▁": 2360,
      "made▁her▁": 2361,
      "pain": 2362,
      "noise▁": 2363,
      "You▁can▁": 2364,
      "I'm▁sorry,▁": 2365,
      "ident": 2366,
      "brought▁": 2367,
      ",▁so▁she▁": 2368,
      "ing.▁He▁": 2369,
      "time,▁": 2370,
      "comfor": 2371,
      "children▁": 2372,
      "When▁the▁": 2373,
      "she▁wanted▁to▁": 2374,
      "like▁to▁play▁": 2375,
      "shap": 2376,
      "for▁being▁": 2377,
      "tired": 2378,
      "in▁the▁sun": 2379,
      ".▁You▁can▁": 2380,
      "led": 2381,
      "for▁him": 2382,
      "had▁lots▁of▁": 2383,
      "moral▁of▁the▁story▁": 2384,
      "ing.▁She▁": 2385,
      "swer": 2386,
      "ick▁": 2387,
      "p▁and▁": 2388,
      ".▁Maybe▁": 2389,
      "snack": 2390,
      "over▁to▁": 2391,
      "out▁a▁": 2392,
      "wouldn't▁": 2393,
      "little▁bird▁": 2394,
      "neigh": 2395,
      "?\"\n\n\"": 2396,
      "could▁not▁": 2397,
      ".▁His▁mom▁": 2398,
      "sure": 2399,
      "Why▁": 2400,
      "box▁and▁": 2401,
      "s▁are▁": 2402,
      "is▁very▁": 2403,
      "on▁their▁": 2404,
      "magical▁": 2405,
      "t,▁": 2406,
      "was▁so▁excited▁to▁": 2407,
      "seem": 2408,
      "listen▁to▁": 2409,
      "outside▁to▁": 2410,
      "pop": 2411,
      "not▁a▁": 2412,
      "trying▁to▁": 2413,
      "stop▁": 2414,
      "frog▁": 2415,
      "toy▁car": 2416,
      "Can▁you▁": 2417,
      "delicious▁": 2418,
      "cold": 2419,
      "who": 2420,
      "grow": 2421,
      "be▁careful": 2422,
      "ught▁": 2423,
      "safe▁and▁": 2424,
      "everything▁": 2425,
      ".\"": 2426,
      "uni": 2427,
      "not▁to▁": 2428,
      "Spot▁": 2429,
      "butterfly▁": 2430,
      "was▁an▁": 2431,
      "do▁it": 2432,
      "out▁and▁": 2433,
      "sit▁": 2434,
      "ben": 2435,
      "because▁he▁": 2436,
      "must▁": 2437,
      "jour": 2438,
      "pan": 2439,
      "happy.▁She▁": 2440,
      "they▁both▁": 2441,
      "ccident": 2442,
      "ation": 2443,
      "Li": 2444,
      "made▁the▁": 2445,
      "Em": 2446,
      "▁asked.\n\n\"": 2447,
      "uddenly,▁a▁": 2448,
      "my.▁": 2449,
      "inter": 2450,
      "Mommy": 2451,
      "pass": 2452,
      "birds▁": 2453,
      "clapp": 2454,
      "lon": 2455,
      "Sarah": 2456,
      "▁able▁to▁": 2457,
      "val": 2458,
      "was▁very▁happy▁and▁": 2459,
      "that▁was▁": 2460,
      "cut▁": 2461,
      "dar": 2462,
      "luck": 2463,
      "plac": 2464,
      ",▁but▁it▁": 2465,
      "us▁": 2466,
      "friendly▁": 2467,
      "what": 2468,
      "I▁want▁to▁": 2469,
      "felt▁a▁": 2470,
      "ome": 2471,
      "cal": 2472,
      "anc": 2473,
      "ly.▁": 2474,
      "he▁saw▁a▁": 2475,
      "s▁on▁the▁": 2476,
      "▁Once▁upon▁a▁time,▁there▁was▁a▁little▁boy▁named▁Timmy.▁Timmy▁": 2477,
      "decided▁to▁go▁": 2478,
      "ready▁to▁": 2479,
      ".\n\nOne▁day,▁the▁": 2480,
      "ran▁away": 2481,
      ".\n\n\"Look,▁": 2482,
      "couldn't▁wait▁to▁": 2483,
      "high▁": 2484,
      "heir▁": 2485,
      "stori": 2486,
      "mom▁and▁dad": 2487,
      "pie": 2488,
      "have▁to▁be▁": 2489,
      "grandma": 2490,
      "s.▁But▁": 2491,
      "get▁the▁": 2492,
      "inside▁and▁": 2493,
      "sou": 2494,
      "side▁": 2495,
      "job": 2496,
      "okay,▁": 2497,
      "makes▁": 2498,
      "beach": 2499,
      "same▁": 2500,
      "so▁much▁fun": 2501,
      "Lily▁and▁Tom▁": 2502,
      ".▁Sam▁": 2503,
      "fen": 2504,
      "e.▁A": 2505,
      "trou": 2506,
      ".\"▁The▁": 2507,
      "couldn't▁find▁": 2508,
      "y▁and▁the▁": 2509,
      "▁Once▁upon▁a▁time,▁there▁was▁a▁little▁girl▁named▁Lily.▁She▁loved▁to▁": 2510,
      ".▁He▁said▁": 2511,
      "corn": 2512,
      "press": 2513,
      "mom▁and▁dad▁": 2514,
      "here": 2515,
      "home": 2516,
      "hands▁and▁": 2517,
      "okay": 2518,
      "you▁have▁to▁": 2519,
      "open▁": 2520,
      "Okay,▁": 2521,
      "ged▁": 2522,
      "Ben,▁": 2523,
      "tom": 2524,
      "lion▁": 2525,
      "new▁friend": 2526,
      "in▁the▁park▁": 2527,
      "secre": 2528,
      "elephan": 2529,
      "drove▁": 2530,
      "until▁the▁": 2531,
      "lad": 2532,
      "with▁her": 2533,
      "chair": 2534,
      "shop": 2535,
      "Fluff": 2536,
      "feel▁better": 2537,
      "▁and▁his▁": 2538,
      "strange▁": 2539,
      "else": 2540,
      "▁after": 2541,
      "book▁": 2542,
      "knew": 2543,
      "um▁": 2544,
      "Jill▁": 2545,
      "looking▁for▁": 2546,
      "inside▁": 2547,
      "wasn't▁": 2548,
      "have▁some▁": 2549,
      "shook": 2550,
      "her▁mom": 2551,
      "I▁will▁": 2552,
      "zy▁": 2553,
      "people": 2554,
      "They": 2555,
      "fter▁a▁whil": 2556,
      "perfect▁": 2557,
      "who▁loved▁to▁": 2558,
      "build▁": 2559,
      "y's▁": 2560,
      "work▁": 2561,
      "sorry": 2562,
      "what▁was▁": 2563,
      "each▁other.▁They▁": 2564,
      "was▁amaz": 2565,
      "e▁and▁the▁": 2566,
      "soft▁": 2567,
      "to▁the▁park": 2568,
      "naught": 2569,
      "zo": 2570,
      "tain": 2571,
      "brave": 2572,
      "▁her▁mom▁": 2573,
      "▁angry▁and▁": 2574,
      "asked,▁\"": 2575,
      "understand": 2576,
      "place": 2577,
      "hand▁and▁": 2578,
      "excited": 2579,
      "move▁": 2580,
      "end▁of▁the▁": 2581,
      "had▁an▁idea": 2582,
      "reached▁the▁": 2583,
      "how▁to▁": 2584,
      "ed▁some▁": 2585,
      "whe": 2586,
      "neck": 2587,
      "gave▁her▁a▁": 2588,
      "such▁a▁": 2589,
      "watched▁the▁": 2590,
      "friend,▁": 2591,
      "watch▁": 2592,
      ".▁\n\nWhen▁": 2593,
      "ue▁": 2594,
      "wav": 2595,
      "deep▁": 2596,
      "get": 2597,
      "surprise▁": 2598,
      "cloud": 2599,
      "sea": 2600,
      "ful▁and▁": 2601,
      "was▁so▁excited": 2602,
      "eyes": 2603,
      "!\"▁said▁": 2604,
      "started▁to▁cry": 2605,
      ",▁but▁they▁": 2606,
      "night▁": 2607,
      "lli": 2608,
      "had▁a▁great▁": 2609,
      ",\"▁he▁": 2610,
      "enjoyed▁": 2611,
      ".▁He▁was▁very▁": 2612,
      "enough▁": 2613,
      "▁ho": 2614,
      "fox▁": 2615,
      "frog": 2616,
      "try▁to▁": 2617,
      "dist": 2618,
      "My▁": 2619,
      "!â€▁": 2620,
      "ile▁": 2621,
      "colorful▁": 2622,
      "squirrel▁": 2623,
      "Oh▁": 2624,
      "continued▁to▁": 2625,
      "Sally▁": 2626,
      "liked▁the▁": 2627,
      "ven▁": 2628,
      "ect": 2629,
      "▁as▁he▁": 2630,
      "pati": 2631,
      "purp": 2632,
      "cake": 2633,
      "doll▁": 2634,
      "en▁and▁": 2635,
      "door▁": 2636,
      "gone": 2637,
      "when▁they▁": 2638,
      "for▁her": 2639,
      "explore▁": 2640,
      "ished": 2641,
      "together.": 2642,
      "bur": 2643,
      "sing▁": 2644,
      "!\"▁she▁": 2645,
      "ss▁the▁": 2646,
      "river": 2647,
      ".▁To": 2648,
      "just": 2649,
      ".\n\nTh": 2650,
      "smiled.▁She▁": 2651,
      "nap": 2652,
      "crayon": 2653,
      "poin": 2654,
      "she▁saw▁a▁": 2655,
      "visit▁": 2656,
      "sound▁": 2657,
      "woke▁": 2658,
      "likes▁to▁": 2659,
      "sitt": 2660,
      "tor": 2661,
      "ious": 2662,
      "slowly▁": 2663,
      "promi": 2664,
      ".▁He▁is▁": 2665,
      "make▁the▁": 2666,
      "remember▁": 2667,
      "mix": 2668,
      "feels▁": 2669,
      "happy.▁": 2670,
      "so▁much▁fun▁": 2671,
      "make▁it▁": 2672,
      "grabbed▁the▁": 2673,
      "looking": 2674,
      "leg": 2675,
      "waited▁": 2676,
      "friends,▁": 2677,
      "rock▁": 2678,
      "noticed▁a▁": 2679,
      "because▁she▁": 2680,
      "ride▁": 2681,
      "balloon": 2682,
      "first▁": 2683,
      "go▁to▁": 2684,
      "fun▁and▁": 2685,
      "three▁years▁old▁and▁": 2686,
      "We▁can▁": 2687,
      "if▁you▁": 2688,
      ".▁One▁day,▁they▁": 2689,
      "take▁the▁": 2690,
      "Lat": 2691,
      "was▁so▁proud▁of": 2692,
      "pretty": 2693,
      "▁One▁day,▁": 2694,
      "duck▁": 2695,
      ".\n\nThe▁little▁girl▁": 2696,
      "house▁and▁": 2697,
      "done▁": 2698,
      "Ben▁and▁Lily▁": 2699,
      "ge▁and▁": 2700,
      "talk▁": 2701,
      "were▁so▁": 2702,
      "Tom,▁": 2703,
      "more": 2704,
      "thought▁it▁was▁": 2705,
      "day.": 2706,
      "va": 2707,
      "picked▁up▁the▁": 2708,
      "cked▁": 2709,
      "ul": 2710,
      "put▁them▁": 2711,
      "st▁and▁": 2712,
      "nice▁and▁": 2713,
      "f▁cour": 2714,
      "little▁girl▁called▁": 2715,
      "Daddy▁": 2716,
      "poli": 2717,
      "Jimmy▁": 2718,
      "for▁a▁long▁": 2719,
      "them▁to▁": 2720,
      "illa": 2721,
      "ign": 2722,
      "I▁love▁": 2723,
      "look▁at▁the▁": 2724,
      "fus": 2725,
      "les▁": 2726,
      "find": 2727,
      "catch": 2728,
      ",\"▁Tom▁": 2729,
      "pig": 2730,
      ".▁Ben▁": 2731,
      "said,▁\"Let's▁": 2732,
      "▁at": 2733,
      "into▁a▁": 2734,
      "blank": 2735,
      "We▁are▁": 2736,
      "kids▁": 2737,
      "climb▁": 2738,
      "seen▁": 2739,
      "Mama▁": 2740,
      "!▁You▁": 2741,
      "said▁to▁": 2742,
      "cir": 2743,
      "played▁together▁": 2744,
      "his": 2745,
      "them.▁They▁": 2746,
      "found▁a▁big▁": 2747,
      "with▁it": 2748,
      "dress▁": 2749,
      "said,▁\"No,▁": 2750,
      "is▁that▁": 2751,
      "ump▁": 2752,
      ".▁One▁day▁": 2753,
      "vel": 2754,
      "friends.▁One▁day,▁": 2755,
      "Of▁cour": 2756,
      "fell": 2757,
      ".▁\n": 2758,
      "in▁the▁park.▁They▁": 2759,
      "farmer▁": 2760,
      "piece▁": 2761,
      "broken▁": 2762,
      "year▁": 2763,
      ",▁but▁it▁was▁too▁": 2764,
      "fix▁": 2765,
      "understand▁": 2766,
      "gave▁the▁": 2767,
      "sug": 2768,
      ".▁I▁love▁": 2769,
      ".\n\nBut▁then,▁": 2770,
      "?\"▁she▁": 2771,
      "closer": 2772,
      "s▁to▁the▁": 2773,
      "go▁and▁": 2774,
      "Lila▁and▁": 2775,
      "in▁the▁forest": 2776,
      "hav": 2777,
      "school": 2778,
      "boun": 2779,
      "er▁that▁": 2780,
      "tower": 2781,
      ".\n\nAfter▁": 2782,
      "fing": 2783,
      "teddy▁bear": 2784,
      "med": 2785,
      "saw▁her▁": 2786,
      ".▁A▁": 2787,
      "field": 2788,
      "wid": 2789,
      "wait▁": 2790,
      "hugged▁her▁": 2791,
      "ally": 2792,
      "was▁playing▁": 2793,
      "wondered▁": 2794,
      "ipp": 2795,
      "This▁is▁": 2796,
      "owner▁": 2797,
      "Sam▁and▁": 2798,
      "asked▁the▁": 2799,
      "yel": 2800,
      ",▁it▁": 2801,
      "Spot": 2802,
      "there,▁": 2803,
      "filled▁with▁": 2804,
      "mat": 2805,
      "gift": 2806,
      "fast▁and▁": 2807,
      ",▁and▁she▁": 2808,
      "waved▁goodby": 2809,
      "birth": 2810,
      "door▁and▁": 2811,
      "nice": 2812,
      "can▁I▁": 2813,
      ".▁The▁little▁girl▁": 2814,
      "rain▁": 2815,
      "young▁": 2816,
      "e▁to▁the▁": 2817,
      "ball▁and▁": 2818,
      "listened▁to▁": 2819,
      "▁ask▁": 2820,
      "kne": 2821,
      "day▁long": 2822,
      "game▁": 2823,
      ".▁She▁felt▁": 2824,
      "was▁happy▁to▁": 2825,
      "swimm": 2826,
      "said.\n\nThey▁": 2827,
      "Thank▁you▁": 2828,
      "ener": 2829,
      "interest": 2830,
      "son▁": 2831,
      "watched▁": 2832,
      "up▁to▁": 2833,
      "of▁them▁": 2834,
      "out▁of▁": 2835,
      "wra": 2836,
      "gave▁him▁a▁": 2837,
      "head▁and▁": 2838,
      "Go": 2839,
      "their▁mom": 2840,
      "over▁and▁": 2841,
      "living▁room": 2842,
      "So,▁": 2843,
      "up▁to▁the▁": 2844,
      "journe": 2845,
      "one▁day,▁": 2846,
      "gigg": 2847,
      "running": 2848,
      "What▁are▁you▁do": 2849,
      "oon,▁": 2850,
      "ant": 2851,
      "as▁": 2852,
      "bright": 2853,
      ".▁Jack▁": 2854,
      "cr": 2855,
      "cup": 2856,
      "was▁sad": 2857,
      "eter": 2858,
      "child▁": 2859,
      "lion": 2860,
      "wanted▁to▁go▁": 2861,
      "emp": 2862,
      "in▁the▁sky": 2863,
      "that▁it▁": 2864,
      "enjoy▁": 2865,
      "curious▁and▁": 2866,
      "mind": 2867,
      "▁again▁": 2868,
      "quest": 2869,
      "didn't▁know▁what▁to▁do": 2870,
      "said,▁\"H": 2871,
      "Le": 2872,
      "hole": 2873,
      "forever": 2874,
      "hear▁": 2875,
      "one▁and▁": 2876,
      "home▁and▁": 2877,
      "strong▁": 2878,
      "grateful▁": 2879,
      "imag": 2880,
      "light▁": 2881,
      "craw": 2882,
      "A▁": 2883,
      ".\n\n\"Let's▁": 2884,
      "daddy▁": 2885,
      "had▁been▁": 2886,
      "Dad": 2887,
      "lot": 2888,
      "help▁you▁": 2889,
      "car▁and▁": 2890,
      "suc": 2891,
      ".▁\n\nLily▁": 2892,
      ".▁From▁then▁on,▁": 2893,
      "their▁mom▁": 2894,
      ".\n": 2895,
      "twi": 2896,
      "gives▁": 2897,
      "?\"▁The▁": 2898,
      "instea": 2899,
      "Now▁": 2900,
      "tiny▁": 2901,
      "whist": 2902,
      "nod": 2903,
      "ed▁at▁": 2904,
      "was▁happy▁and▁": 2905,
      ",▁and▁they▁": 2906,
      "health": 2907,
      "no▁one▁": 2908,
      "cross": 2909,
      "together.▁They▁": 2910,
      "learned▁a▁": 2911,
      "well": 2912,
      "Amy▁": 2913,
      "cer": 2914,
      "find▁the▁": 2915,
      "3▁": 2916,
      "stopped▁and▁": 2917,
      "tun": 2918,
      "ually▁": 2919,
      "lived▁a▁": 2920,
      "slide▁": 2921,
      "any▁": 2922,
      "ke▁and▁": 2923,
      "ccidentally▁": 2924,
      "happy.▁He▁": 2925,
      ".\"▁Lily▁": 2926,
      "learned▁": 2927,
      "ed▁again": 2928,
      "towards▁": 2929,
      "animals▁": 2930,
      "mean▁to▁": 2931,
      "catch▁": 2932,
      "rest▁": 2933,
      "sweet▁": 2934,
      "shiny▁and▁": 2935,
      "lonel": 2936,
      "picked▁it▁up▁and▁": 2937,
      "play▁with▁it": 2938,
      "▁anything▁": 2939,
      "hold▁": 2940,
      "race▁": 2941,
      "else▁": 2942,
      "pudd": 2943,
      ".▁She▁was▁very▁": 2944,
      "looks": 2945,
      "colle": 2946,
      ".▁It▁was▁very▁": 2947,
      "came▁and▁": 2948,
      "wea": 2949,
      "wise▁": 2950,
      ".\"▁They▁": 2951,
      "fea": 2952,
      "Mary▁": 2953,
      "that▁they▁": 2954,
      "build": 2955,
      "▁any▁": 2956,
      ".▁Mom▁": 2957,
      "forest▁": 2958,
      "pres": 2959,
      "sure▁to▁": 2960,
      "won't▁": 2961,
      "lat": 2962,
      "vit": 2963,
      "hug▁": 2964,
      "rac": 2965,
      "no▁long": 2966,
      "it▁was▁time▁to▁go▁hom": 2967,
      "e.▁\"": 2968,
      "thinks▁": 2969,
      "help▁you": 2970,
      "Oh▁no": 2971,
      ".▁Some": 2972,
      "▁away▁and▁": 2973,
      "?\"▁\n\n": 2974,
      "stay": 2975,
      "then▁he▁": 2976,
      "if▁she▁could▁": 2977,
      "thought▁for▁a▁mom": 2978,
      "cool▁": 2979,
      "sandwi": 2980,
      ".▁They▁both▁": 2981,
      "thought▁about▁": 2982,
      "had▁many▁": 2983,
      "store▁": 2984,
      "until▁he▁": 2985,
      "went▁for▁a▁": 2986,
      "OK,▁": 2987,
      "played▁with▁the▁": 2988,
      "yummy": 2989,
      "To": 2990,
      "himself": 2991,
      ".▁Every▁day▁": 2992,
      "ng": 2993,
      "It": 2994,
      "icy▁": 2995,
      "each▁other▁": 2996,
      "jump▁": 2997,
      "pet▁": 2998,
      "his▁friends▁": 2999,
      "blo": 3000,
      "should▁not▁": 3001,
      "proble": 3002,
      "can▁be▁": 3003,
      "▁as▁she▁": 3004,
      "!\"\n\n\"": 3005,
      "colour": 3006,
      "wash": 3007,
      "▁am": 3008,
      "mach": 3009,
      "cross▁the▁": 3010,
      "quiet": 3011,
      "suddenly▁": 3012,
      "see▁what▁was▁": 3013,
      "ing▁on▁the▁": 3014,
      "e.▁You▁": 3015,
      "wom": 3016,
      "stuck▁": 3017,
      "buck": 3018,
      "puppy▁": 3019,
      ".▁They▁did▁not▁": 3020,
      "loud▁noise": 3021,
      "finished": 3022,
      "was▁the▁": 3023,
      "tid": 3024,
      ".\n\nOne▁day,▁they▁": 3025,
      "voice": 3026,
      "decided▁": 3027,
      "!\"▁The▁": 3028,
      "coat": 3029,
      "join▁": 3030,
      "w▁the▁": 3031,
      ".\n\nMom▁": 3032,
      "takes▁": 3033,
      "made▁it▁": 3034,
      "mouth": 3035,
      "ebra": 3036,
      "wanted▁to▁help": 3037,
      "spa": 3038,
      "did▁you▁": 3039,
      "squirrel": 3040,
      "on▁an": 3041,
      "villa": 3042,
      "purple▁": 3043,
      "get▁a▁": 3044,
      "about▁": 3045,
      "ama": 3046,
      "fac": 3047,
      "town": 3048,
      "dadd": 3049,
      "eyes▁": 3050,
      "said▁no": 3051,
      "num": 3052,
      "ang": 3053,
      "treasure": 3054,
      "▁high": 3055,
      "spid": 3056,
      "took▁her▁": 3057,
      "left▁": 3058,
      "pat": 3059,
      "magic▁": 3060,
      "one▁day▁": 3061,
      "sick": 3062,
      "said:▁\"": 3063,
      "excited▁and▁": 3064,
      "outside": 3065,
      "name▁": 3066,
      "prot": 3067,
      "way,▁": 3068,
      "gan": 3069,
      "bug▁": 3070,
      "button": 3071,
      "noise▁and▁": 3072,
      "red▁and▁": 3073,
      "fron": 3074,
      "du": 3075,
      "hard▁and▁": 3076,
      "dark▁": 3077,
      "heard▁the▁": 3078,
      "tu": 3079,
      "▁Once▁upon▁a▁time,▁there▁was▁a▁boy▁named▁": 3080,
      "▁Tom▁and▁": 3081,
      "broken": 3082,
      "dog▁named▁": 3083,
      "rabbit": 3084,
      "Where▁": 3085,
      "something▁special": 3086,
      "need▁": 3087,
      "here▁": 3088,
      "to▁always▁": 3089,
      "lunch": 3090,
      "monster▁": 3091,
      ".▁\n\nHe▁": 3092,
      ",▁and▁it▁": 3093,
      "move": 3094,
      "In": 3095,
      "followed▁": 3096,
      "ide": 3097,
      "way▁to▁": 3098,
      ".▁Spot▁": 3099,
      "met▁a▁": 3100,
      "sunny▁": 3101,
      "finished▁": 3102,
      "noticed▁that▁": 3103,
      "closer▁and▁": 3104,
      "careful▁and▁": 3105,
      "ya": 3106,
      ".\n\nAt▁the▁": 3107,
      "That": 3108,
      "?\"▁Lily": 3109,
      "jun": 3110,
      "ci": 3111,
      "spott": 3112,
      "▁house": 3113,
      "when▁the▁": 3114,
      "tter▁and▁": 3115,
      "pract": 3116,
      "er,▁": 3117,
      "event": 3118,
      "forgot": 3119,
      "tow": 3120,
      "s▁his▁": 3121,
      "train": 3122,
      "was▁sad▁": 3123,
      "minut": 3124,
      "the▁little▁girl▁": 3125,
      "in▁the▁wood": 3126,
      ".▁They▁wanted▁to▁": 3127,
      "respec": 3128,
      "e.▁Lily▁": 3129,
      "▁and▁it▁": 3130,
      "trouble": 3131,
      "er.▁He▁": 3132,
      "with▁her▁mom": 3133,
      "organ": 3134,
      "he▁had▁to▁": 3135,
      "wil": 3136,
      "weet": 3137,
      "him▁to▁": 3138,
      "s.▁They▁are▁": 3139,
      "loved▁the▁": 3140,
      "ers▁": 3141,
      ".\n\nTom▁": 3142,
      "coin": 3143,
      "peace": 3144,
      "see▁a▁big▁": 3145,
      "mail": 3146,
      "mean▁": 3147,
      "if▁he▁could▁": 3148,
      "Emil": 3149,
      "best": 3150,
      ",\"▁the▁": 3151,
      ".\n\nSo▁": 3152,
      "for▁a▁whil": 3153,
      "Yes": 3154,
      "watch▁the▁": 3155,
      "sun▁was▁": 3156,
      "realized▁": 3157,
      "there▁lived▁a▁": 3158,
      "tall": 3159,
      "kick": 3160,
      "black▁": 3161,
      "open▁the▁": 3162,
      "park▁and▁": 3163,
      ".\n\n\"Wow,▁": 3164,
      "flying▁": 3165,
      "though▁": 3166,
      "ed.▁The▁": 3167,
      "▁answer": 3168,
      "berri": 3169,
      "puzz": 3170,
      "y.▁One▁day,▁": 3171,
      "board▁": 3172,
      "myster": 3173,
      "you▁can": 3174,
      "ob": 3175,
      "moved▁": 3176,
      "Mitten": 3177,
      "a▁big▁": 3178,
      "ined▁": 3179,
      "!\"\n\nThey▁": 3180,
      "was▁able▁to▁": 3181,
      "came▁to▁the▁": 3182,
      ".▁We▁can▁": 3183,
      "other▁animal": 3184,
      "scary▁": 3185,
      ".▁Sara▁": 3186,
      "another▁": 3187,
      "broke▁": 3188,
      "before": 3189,
      "organiz": 3190,
      ".▁He▁looked▁": 3191,
      "mess": 3192,
      "Mum▁": 3193,
      "bag▁": 3194,
      "play▁with▁their▁": 3195,
      "flew▁away": 3196,
      "who▁liked▁to▁": 3197,
      ".▁Thank▁": 3198,
      "nothing▁": 3199,
      "▁asked▁the▁": 3200,
      "cle▁": 3201,
      "ion▁": 3202,
      "sist": 3203,
      "power": 3204,
      "ed.▁": 3205,
      "flowers▁and▁": 3206,
      "no▁longer▁": 3207,
      ".▁\n\nBut▁": 3208,
      "draw▁": 3209,
      "in▁the▁water": 3210,
      "'ll▁": 3211,
      "n't": 3212,
      "got▁a▁": 3213,
      "▁again▁and▁": 3214,
      "was▁so▁excited▁and▁": 3215,
      "fast▁": 3216,
      "wet": 3217,
      "▁att": 3218,
      "with▁lots▁of▁": 3219,
      "reliev": 3220,
      ".\"▁She▁": 3221,
      "running▁": 3222,
      "year▁old▁": 3223,
      "Sure,▁": 3224,
      "wish▁": 3225,
      "y▁a▁": 3226,
      "top▁of▁the▁": 3227,
      "fli": 3228,
      "felt▁sad▁and▁": 3229,
      "fter▁a▁while,▁": 3230,
      "Lisa": 3231,
      "couldn't▁believe▁": 3232,
      "them.▁She▁": 3233,
      "got▁to▁": 3234,
      "night,▁": 3235,
      "which▁": 3236,
      "bru": 3237,
      "huge▁": 3238,
      "stum": 3239,
      "s▁that▁": 3240,
      ".▁The▁cat▁": 3241,
      "hand▁": 3242,
      "belong": 3243,
      "it's▁important▁to▁": 3244,
      "the▁bird▁": 3245,
      "thank▁you": 3246,
      "hot▁": 3247,
      "place▁to▁": 3248,
      "Come▁on,▁": 3249,
      "I'll▁": 3250,
      "was▁walking▁": 3251,
      "bowl": 3252,
      "did▁not▁like▁": 3253,
      "▁Lily▁and▁": 3254,
      "Later▁that▁": 3255,
      "dropp": 3256,
      "mark": 3257,
      "turn▁": 3258,
      "mel": 3259,
      "whole▁": 3260,
      "ear▁": 3261,
      "ja": 3262,
      "▁hur": 3263,
      "point": 3264,
      "imal▁": 3265,
      "king▁": 3266,
      "walking": 3267,
      "train▁": 3268,
      "street": 3269,
      "!\"▁he▁": 3270,
      "even▁more▁": 3271,
      "without▁": 3272,
      "said▁yes": 3273,
      "▁Once▁upon▁a▁time,▁there▁was▁a▁big▁": 3274,
      "followed▁the▁": 3275,
      "supp": 3276,
      "shell": 3277,
      "â€\n\nThe▁": 3278,
      "throw": 3279,
      "Grandma▁": 3280,
      "lan": 3281,
      ".▁It▁is▁a▁": 3282,
      "i,▁": 3283,
      "that's▁": 3284,
      "illi": 3285,
      "impress": 3286,
      "s.▁Lily▁": 3287,
      "hole▁": 3288,
      "mom,▁\"": 3289,
      "stri": 3290,
      "rubb": 3291,
      "bubb": 3292,
      "▁away,▁": 3293,
      "trees": 3294,
      "everywher": 3295,
      "▁amazing▁": 3296,
      "sister": 3297,
      "real▁": 3298,
      "s▁with▁": 3299,
      "later": 3300,
      "oce": 3301,
      "children": 3302,
      "?\"\n\nLily▁": 3303,
      ".▁Every▁day,▁": 3304,
      "picnic": 3305,
      "three▁years▁old": 3306,
      ".▁The▁man▁": 3307,
      ".▁They▁also▁": 3308,
      "smile": 3309,
      "run▁and▁": 3310,
      "sign▁": 3311,
      "fire▁": 3312,
      "in▁the▁kitchen": 3313,
      "sees▁the▁": 3314,
      "needed▁to▁": 3315,
      "moun": 3316,
      "enjoyed▁the▁": 3317,
      "bow▁": 3318,
      "ground▁and▁": 3319,
      "late": 3320,
      "backyard": 3321,
      "tee": 3322,
      "bird▁and▁": 3323,
      ".▁Tom▁and▁": 3324,
      "happily▁ever": 3325,
      "ved,▁": 3326,
      "hopp": 3327,
      "leave▁": 3328,
      "▁all▁day▁long": 3329,
      "pol": 3330,
      "nâ€™t▁": 3331,
      "still": 3332,
      "in▁the▁air": 3333,
      "▁arrived▁": 3334,
      "ven": 3335,
      "sorry▁and▁": 3336,
      "name▁was▁": 3337,
      "lay▁": 3338,
      "sham": 3339,
      "trees▁and▁": 3340,
      "▁ate▁": 3341,
      "▁Lily▁": 3342,
      "head▁": 3343,
      "says.\n\nThey▁": 3344,
      "is▁so▁": 3345,
      "soft▁and▁": 3346,
      "sne": 3347,
      "voic": 3348,
      "play▁and▁": 3349,
      "stand": 3350,
      "bigg": 3351,
      "s▁her▁": 3352,
      "egg": 3353,
      "bush": 3354,
      "problem": 3355,
      "showed▁her▁": 3356,
      "to▁play▁with": 3357,
      "ft▁the▁": 3358,
      "sad.▁She▁": 3359,
      "take▁it▁": 3360,
      "fairy▁": 3361,
      ".▁In▁the▁": 3362,
      "y▁are▁you▁": 3363,
      "says.▁He▁": 3364,
      ".▁Do▁you▁want▁to▁": 3365,
      "it▁up": 3366,
      "re▁you▁": 3367,
      ".▁I▁am▁": 3368,
      "hit▁": 3369,
      ".▁They▁said▁": 3370,
      "moral▁of▁the▁story▁is▁that▁": 3371,
      "Little▁": 3372,
      "her.▁She▁": 3373,
      "it.\n\n": 3374,
      "mista": 3375,
      "blanket": 3376,
      ".▁Every": 3377,
      "behind▁the▁": 3378,
      "arm": 3379,
      "happy▁that▁": 3380,
      "soft": 3381,
      "dea": 3382,
      "k▁and▁": 3383,
      "Jack▁and▁": 3384,
      "forgive▁": 3385,
      "s,▁but▁": 3386,
      "made▁him▁": 3387,
      "roar": 3388,
      "piece▁of▁": 3389,
      "Timmy▁and▁": 3390,
      "y.▁It▁": 3391,
      "sit": 3392,
      "ey,▁": 3393,
      "wear▁": 3394,
      "touch▁the▁": 3395,
      "gro": 3396,
      "because▁it▁": 3397,
      "iou": 3398,
      "Pa": 3399,
      "Timmy's▁mom▁": 3400,
      "look▁for▁": 3401,
      "▁anymore": 3402,
      "asked▁her▁mom▁": 3403,
      "smoo": 3404,
      "they▁went▁": 3405,
      "▁away▁from▁the▁": 3406,
      "gat": 3407,
      ".\"\n\nTom▁": 3408,
      "soa": 3409,
      "matter▁": 3410,
      "morning,▁": 3411,
      "touch▁": 3412,
      "brown▁": 3413,
      "What's▁": 3414,
      "herself": 3415,
      "era": 3416,
      ".▁They▁were▁very▁": 3417,
      "rel": 3418,
      "shr": 3419,
      "search": 3420,
      "hot": 3421,
      "creati": 3422,
      ".\"\n\nBen▁": 3423,
      "body▁": 3424,
      "pocket": 3425,
      "silly▁": 3426,
      "▁Once▁upon▁a▁time,▁there▁were▁two▁": 3427,
      "use▁the▁": 3428,
      "ct▁": 3429,
      "brid": 3430,
      "lesson▁": 3431,
      "paper▁": 3432,
      "gather": 3433,
      "left": 3434,
      "it▁a▁": 3435,
      "tomor": 3436,
      "▁appear": 3437,
      "you▁too": 3438,
      "start": 3439,
      "choco": 3440,
      "was▁sad▁and▁": 3441,
      "then▁she▁": 3442,
      "led▁and▁": 3443,
      "ladd": 3444,
      "better▁and▁": 3445,
      "lick": 3446,
      "things▁and▁": 3447,
      "scared.▁He▁": 3448,
      "pond▁": 3449,
      "happily▁ever▁after": 3450,
      "Please▁": 3451,
      "yell": 3452,
      "Lila": 3453,
      "was▁scared▁and▁": 3454,
      "feeling▁very▁": 3455,
      "mine": 3456,
      "dragon▁": 3457,
      "orange▁": 3458,
      "shor": 3459,
      "round▁": 3460,
      "stick▁": 3461,
      "splash": 3462,
      ".▁Then▁he▁": 3463,
      "▁and▁she▁": 3464,
      "carrot": 3465,
      "sol": 3466,
      "bby▁": 3467,
      "card": 3468,
      "scared.▁She▁": 3469,
      "stret": 3470,
      "Sara▁and▁Ben▁": 3471,
      "but▁he▁": 3472,
      "It's▁okay,▁": 3473,
      "ling▁": 3474,
      "spin": 3475,
      "!▁You▁are▁": 3476,
      "?\"▁she▁ask": 3477,
      "y.▁But▁": 3478,
      "ing.▁": 3479,
      "face▁": 3480,
      "ll▁the▁": 3481,
      "teacher▁": 3482,
      "daught": 3483,
      "said.▁He▁": 3484,
      "from▁a▁": 3485,
      "finish": 3486,
      "question": 3487,
      "cap": 3488,
      ".▁One▁day,▁he▁": 3489,
      "loved▁playing▁": 3490,
      "Good▁": 3491,
      "fit▁": 3492,
      "had▁never▁": 3493,
      "ement": 3494,
      "help▁me▁": 3495,
      "fruit": 3496,
      "embar": 3497,
      "share▁the▁": 3498,
      "curious": 3499,
      "ed▁that▁he▁": 3500,
      "ith": 3501,
      "bee▁": 3502,
      "chick": 3503,
      "sky▁": 3504,
      "made▁sure▁to▁": 3505,
      "basket": 3506,
      "stair": 3507,
      "close": 3508,
      "pec": 3509,
      "embarra": 3510,
      "even": 3511,
      ".▁Then▁she▁": 3512,
      "old▁man": 3513,
      "caught▁": 3514,
      "feather": 3515,
      "looked▁around": 3516,
      "e's▁": 3517,
      "was▁surpris": 3518,
      ".▁They▁liked▁to▁": 3519,
      "ski": 3520,
      "use": 3521,
      "have▁fun▁": 3522,
      "noticed▁something▁": 3523,
      "ey▁": 3524,
      ".▁\n\nSuddenly,▁": 3525,
      "on▁the▁swing": 3526,
      "confus": 3527,
      "pill": 3528,
      "robo": 3529,
      "like▁it": 3530,
      ".▁Insid": 3531,
      ".▁After▁": 3532,
      "Emma▁": 3533,
      "neckla": 3534,
      "owl▁": 3535,
      "grass▁and▁": 3536,
      "h,▁": 3537,
      "warm▁and▁": 3538,
      "arri": 3539,
      "invit": 3540,
      "having▁fun": 3541,
      "zoom": 3542,
      "went▁outside▁to▁": 3543,
      ".\n\nThe▁next▁day,▁": 3544,
      "joy": 3545,
      "his▁mom": 3546,
      "mad": 3547,
      "colors▁and▁": 3548,
      "swam": 3549,
      "s.▁You▁": 3550,
      "Mom▁and▁Dad▁": 3551,
      "dance▁": 3552,
      "wanted▁to▁be▁": 3553,
      "cur": 3554,
      "ve▁and▁": 3555,
      "bed▁and▁": 3556,
      "whenever▁": 3557,
      "room.▁She▁": 3558,
      "▁anything": 3559,
      "Later▁that▁day,▁": 3560,
      "loved▁to▁play▁with▁his▁": 3561,
      "heart": 3562,
      "discover": 3563,
      "showed▁it▁": 3564,
      "princess▁": 3565,
      ".\n\nAs▁": 3566,
      "amaz": 3567,
      "sitting▁": 3568,
      "saw▁many▁": 3569,
      "empt": 3570,
      "disappear": 3571,
      "ten": 3572,
      "smiled,▁": 3573,
      "drink": 3574,
      "to▁play": 3575,
      "You're▁welcom": 3576,
      "▁alone": 3577,
      "embarrass": 3578,
      ".▁Anna▁": 3579,
      "cak": 3580,
      "to▁eat": 3581,
      "driver▁": 3582,
      "s.▁It▁": 3583,
      "went▁back▁to▁": 3584,
      "says.\n\n": 3585,
      "comes▁": 3586,
      "was▁a▁very▁": 3587,
      "ight▁and▁": 3588,
      ".▁He▁felt▁": 3589,
      "saw▁his▁": 3590,
      "spra": 3591,
      "cont": 3592,
      "dragon": 3593,
      "banan": 3594,
      "happy,▁": 3595,
      "doctor": 3596,
      "over▁to▁the▁": 3597,
      "board": 3598,
      "plant": 3599,
      "e,▁she▁": 3600,
      "remembered▁": 3601,
      "ing.▁They▁": 3602,
      "shelf": 3603,
      "her▁friends▁": 3604,
      "Johnn": 3605,
      ".▁He▁had▁a▁": 3606,
      "tear": 3607,
      "fter▁a▁few▁": 3608,
      "celebra": 3609,
      "went▁back▁": 3610,
      "▁adventur": 3611,
      "mm": 3612,
      "take▁care▁": 3613,
      "up▁a▁": 3614,
      "coura": 3615,
      "sleep▁": 3616,
      "promised▁to▁": 3617,
      "around▁and▁": 3618,
      ".\n\n\"Hello,▁": 3619,
      "sang": 3620,
      "▁Once▁upon▁a▁time,▁in▁a▁": 3621,
      "away": 3622,
      "les▁and▁": 3623,
      "butterfly": 3624,
      "hugs▁": 3625,
      "yard▁": 3626,
      "with▁me": 3627,
      "visit": 3628,
      "to▁get▁": 3629,
      "fil": 3630,
      "smiled▁at▁": 3631,
      "wanted▁to▁play▁": 3632,
      "proud▁of▁him": 3633,
      "Tom's▁": 3634,
      "▁afra": 3635,
      "friends.▁They▁like▁to▁play▁": 3636,
      "calm": 3637,
      "maybe▁": 3638,
      "tries▁to▁": 3639,
      "carri": 3640,
      "bring▁": 3641,
      "pa▁": 3642,
      ".▁The▁boy▁": 3643,
      ".▁So▁he▁": 3644,
      "ed▁in▁": 3645,
      "sign": 3646,
      "so▁much": 3647,
      "been": 3648,
      "eat▁the▁": 3649,
      "says.▁She▁": 3650,
      "cow": 3651,
      "sn": 3652,
      "grab": 3653,
      "ed▁them▁": 3654,
      "jung": 3655,
      "threw▁": 3656,
      "▁hugged▁": 3657,
      "deter": 3658,
      "grandma▁": 3659,
      "said.▁She▁": 3660,
      "with▁many▁": 3661,
      "spent▁": 3662,
      "!▁They▁": 3663,
      "ed▁away": 3664,
      ".▁He▁did▁not▁": 3665,
      "done": 3666,
      "wagg": 3667,
      "monkey▁": 3668,
      "smart": 3669,
      "castle▁": 3670,
      "was▁still▁": 3671,
      "have▁the▁": 3672,
      "Jenny▁": 3673,
      "brav": 3674,
      "different": 3675,
      "proud▁of▁her": 3676,
      "determin": 3677,
      "doctor▁": 3678,
      "fl": 3679,
      "Hello,▁": 3680,
      "boy▁and▁": 3681,
      "daughter▁": 3682,
      "that▁she▁had▁": 3683,
      "gentle▁": 3684,
      "hello": 3685,
      "helped▁her▁": 3686,
      "miss": 3687,
      "decor": 3688,
      "used▁": 3689,
      "will": 3690,
      "looked▁up": 3691,
      "count": 3692,
      "had": 3693,
      "yellow": 3694,
      "towards▁the▁": 3695,
      "y.\n\n\"": 3696,
      "from▁her▁": 3697,
      "they▁had▁to▁": 3698,
      "said▁it▁was▁": 3699,
      ".â€▁": 3700,
      "slide": 3701,
      "said,▁\"Thank▁you,▁": 3702,
      "tomorrow": 3703,
      "something▁new": 3704,
      "taking▁": 3705,
      "jok": 3706,
      ".▁Now▁": 3707,
      "ny▁and▁": 3708,
      "ches▁": 3709,
      "s,▁the▁": 3710,
      "hum": 3711,
      "dow▁": 3712,
      "hat▁and▁": 3713,
      "sharp▁": 3714,
      "just▁a▁": 3715,
      "scre": 3716,
      ".▁I▁want▁to▁": 3717,
      "ite▁and▁": 3718,
      "two▁friends▁": 3719,
      "smiles▁and▁": 3720,
      "ic▁": 3721,
      "sister▁": 3722,
      "succes": 3723,
      "in▁it": 3724,
      "Rex": 3725,
      "scared.▁They▁": 3726,
      "eng": 3727,
      "secret▁": 3728,
      "smiled.▁He▁": 3729,
      "ed.": 3730,
      "today": 3731,
      "TV": 3732,
      "disappo": 3733,
      "bounc": 3734,
      "wore▁": 3735,
      "went▁back▁to▁the▁": 3736,
      "road": 3737,
      "saw▁some▁": 3738,
      "playing,▁": 3739,
      "time▁for▁": 3740,
      "slide▁and▁": 3741,
      "lived▁happily▁ever▁after": 3742,
      "bed▁": 3743,
      "me,▁": 3744,
      "spoon": 3745,
      "window▁and▁": 3746,
      "monster": 3747,
      ".▁He▁would▁": 3748,
      "gener": 3749,
      "ring": 3750,
      "busy▁": 3751,
      "touch▁it": 3752,
      "spread▁": 3753,
      "Then▁": 3754,
      "lovely▁": 3755,
      "vege": 3756,
      "thanked▁her▁": 3757,
      "flowers▁": 3758,
      "shouted▁": 3759,
      "les": 3760,
      "pour": 3761,
      "▁Once▁upon▁a▁time,▁there▁was▁a▁little▁girl▁named▁Lily": 3762,
      "great": 3763,
      "play▁a▁": 3764,
      "pieces▁": 3765,
      "there▁was▁an▁": 3766,
      "Jill": 3767,
      "wag": 3768,
      "nearby▁": 3769,
      "finger": 3770,
      "cookies": 3771,
      "goes▁": 3772,
      "strong▁and▁": 3773,
      "wheel": 3774,
      "one.▁": 3775,
      "she▁got▁": 3776,
      "Dadd": 3777,
      "hugged▁the▁": 3778,
      "Every▁day▁": 3779,
      "never▁for": 3780,
      "Jim▁": 3781,
      "to▁find▁": 3782,
      "Tweet": 3783,
      "Ted": 3784,
      "what▁happen": 3785,
      "Why▁are▁you▁": 3786,
      "Tim.▁Tim▁": 3787,
      "together,▁": 3788,
      ",▁but▁he▁was▁": 3789,
      "delicious": 3790,
      "family": 3791,
      "sorry.▁They▁": 3792,
      "pulled▁": 3793,
      "sounds▁": 3794,
      "put▁on▁her▁": 3795,
      "rainbow": 3796,
      "toys.▁They▁": 3797,
      "watched▁a": 3798,
      "age": 3799,
      "things.▁": 3800,
      "Every▁day,▁": 3801,
      "her▁favorite▁": 3802,
      "e▁of▁": 3803,
      "cried▁and▁": 3804,
      "smile▁and▁": 3805,
      "▁as▁fast": 3806,
      "saw▁that▁the▁": 3807,
      "valu": 3808,
      "front▁": 3809,
      "onto▁the▁": 3810,
      "stood▁": 3811,
      "▁as▁the▁": 3812,
      "On▁the▁": 3813,
      "e,▁he▁": 3814,
      "lake": 3815,
      "is▁the▁": 3816,
      "neighbor": 3817,
      ".▁Suddenly,▁the▁": 3818,
      "everywhere▁": 3819,
      "you're▁": 3820,
      "come▁back": 3821,
      "that▁he▁had▁": 3822,
      "perfect": 3823,
      ".▁Do▁you▁": 3824,
      "advent": 3825,
      "opened▁": 3826,
      "nice▁to▁": 3827,
      "woman▁": 3828,
      "?\"▁he▁": 3829,
      "who▁lived▁in▁a▁": 3830,
      "ed▁that▁she▁": 3831,
      "ed▁about▁": 3832,
      "▁Lily▁and▁Ben▁": 3833,
      "I▁don't▁know": 3834,
      "▁asks.\n\n\"": 3835,
      "them.▁He▁": 3836,
      "dry▁": 3837,
      "who▁liked▁to▁play▁": 3838,
      "spit": 3839,
      ".▁One▁day,▁the▁": 3840,
      "ug▁": 3841,
      "ed.\n\nThe▁": 3842,
      "kitt": 3843,
      "sad.▁They▁": 3844,
      "circle": 3845,
      "accidentally▁": 3846,
      "ines": 3847,
      "sky": 3848,
      "too.▁He▁": 3849,
      "run▁to▁the▁": 3850,
      "was▁very▁happy": 3851,
      "idd": 3852,
      "whisp": 3853,
      ".\n\nOne▁day▁": 3854,
      ".\"▁He▁": 3855,
      "but": 3856,
      "wanted▁the▁": 3857,
      "mother": 3858,
      "saw▁a▁big,▁": 3859,
      "ice▁cream▁": 3860,
      "loves▁": 3861,
      "looked▁up▁and▁": 3862,
      "eventually▁": 3863,
      "wish": 3864,
      ".\"▁\n\nThe▁": 3865,
      "▁her▁and▁": 3866,
      "food▁and▁": 3867,
      "giant▁": 3868,
      "Grandma": 3869,
      ",▁Lily▁": 3870,
      "ing.": 3871,
      ".▁Their▁": 3872,
      "swim▁": 3873,
      "shouted,▁\"": 3874,
      "for▁helping▁": 3875,
      "dest": 3876,
      "paper▁and▁": 3877,
      "bench": 3878,
      "Give▁": 3879,
      "umb": 3880,
      "black": 3881,
      "wol": 3882,
      "smiled▁and▁said,▁\"Yes,▁": 3883,
      "the▁best▁of▁": 3884,
      "When": 3885,
      "deep": 3886,
      "olly▁": 3887,
      "elephant▁": 3888,
      "tired▁and▁": 3889,
      "give▁up": 3890,
      "clu": 3891,
      "left▁the▁": 3892,
      "sorry▁to▁": 3893,
      ".▁He▁was▁so▁": 3894,
      "While▁": 3895,
      "was▁happy": 3896,
      "Are▁you▁": 3897,
      "sy": 3898,
      "Lily's▁mommy▁": 3899,
      "swam▁": 3900,
      "got": 3901,
      "person▁": 3902,
      "felt": 3903,
      "wip": 3904,
      "can▁we▁": 3905,
      ",▁you▁": 3906,
      "lift": 3907,
      "keep▁the▁": 3908,
      "frustra": 3909,
      "laughed▁": 3910,
      "hospit": 3911,
      ",▁and▁a▁": 3912,
      "grou": 3913,
      "Let▁": 3914,
      "leaves": 3915,
      "return": 3916,
      "he▁got▁": 3917,
      "storm▁": 3918,
      ".▁It▁had▁": 3919,
      "landed▁": 3920,
      "stir": 3921,
      "from▁his▁": 3922,
      "mouse": 3923,
      "let": 3924,
      ".\n\n\"S": 3925,
      "then,▁a▁": 3926,
      "laugh▁and▁": 3927,
      "dress▁and▁": 3928,
      ".▁Her▁mommy▁": 3929,
      "pir": 3930,
      "pizz": 3931,
      "store▁and▁": 3932,
      "made▁a▁big▁": 3933,
      "one▁of▁the▁": 3934,
      "with▁you": 3935,
      "res": 3936,
      "?\"▁asked▁": 3937,
      "gether": 3938,
      "had▁fun": 3939,
      ".\"\n\nMom▁": 3940,
      "instead": 3941,
      "jar": 3942,
      "▁adventure▁": 3943,
      "fanc": 3944,
      "share▁and▁": 3945,
      ".▁It▁looked▁": 3946,
      "who▁was▁very▁": 3947,
      "heavy▁": 3948,
      "tree.▁The▁": 3949,
      "to▁see▁": 3950,
      "having▁a▁": 3951,
      "every▁day.▁": 3952,
      "felt▁happy▁and▁": 3953,
      "bite▁": 3954,
      "lost": 3955,
      "large▁": 3956,
      "agre": 3957,
      ".▁F": 3958,
      "neighb": 3959,
      "att": 3960,
      "happy▁to▁have▁": 3961,
      "swing▁": 3962,
      "s.\n\nThe▁": 3963,
      "offer": 3964,
      "him.▁He▁": 3965,
      "play▁with▁his▁": 3966,
      "too.▁She▁": 3967,
      "nose": 3968,
      "who▁lived▁": 3969,
      "smiled.▁\"": 3970,
      "s▁and▁a▁": 3971,
      "No": 3972,
      "boo": 3973,
      "fell▁a": 3974,
      ".▁It▁was▁the▁": 3975,
      "was▁al": 3976,
      "there▁was▁": 3977,
      "you▁to▁": 3978,
      "for▁a▁long▁tim": 3979,
      "hid▁": 3980,
      "less▁": 3981,
      "continued▁": 3982,
      "spot▁": 3983,
      "climb▁the▁": 3984,
      "fig": 3985,
      "Be": 3986,
      "lam": 3987,
      "this▁is▁": 3988,
      "table▁and▁": 3989,
      "noticed▁": 3990,
      "every▁day▁": 3991,
      "nerv": 3992,
      "fear": 3993,
      "make▁you▁": 3994,
      "tired▁": 3995,
      "gun": 3996,
      "wild▁": 3997,
      "mom,▁": 3998,
      "ship": 3999,
      "key▁": 4000,
      "promise▁": 4001,
      "king": 4002,
      "s.▁They▁were▁": 4003,
      ".â€\n\n": 4004,
      "reach▁the▁": 4005,
      ".\n\nOne▁day,▁a▁": 4006,
      "game": 4007,
      "gest": 4008,
      "ary▁": 4009,
      "that▁she▁could▁": 4010,
      "grump": 4011,
      "zi": 4012,
      "Your▁": 4013,
      "tick": 4014,
      "sad.▁He▁": 4015,
      "saur": 4016,
      "tried▁": 4017,
      "cannot▁": 4018,
      "took▁it▁": 4019,
      "erpill": 4020,
      ",\"▁Mom▁": 4021,
      "didn't▁know": 4022,
      "dangerou": 4023,
      "them▁a▁": 4024,
      "lit▁": 4025,
      ",▁but▁it▁was▁": 4026,
      "hoped▁": 4027,
      "Jake▁": 4028,
      "we▁are▁": 4029,
      "makes▁a▁": 4030,
      "que": 4031,
      "for▁their▁": 4032,
      "out▁to▁": 4033,
      "had▁lots▁of▁fun": 4034,
      "orry,▁": 4035,
      "tree.▁He▁": 4036,
      "Ben's▁": 4037,
      "selfish": 4038,
      "osaur": 4039,
      "warn": 4040,
      "Fluffy▁": 4041,
      "▁as▁they▁": 4042,
      "please▁": 4043,
      ".▁So,▁he▁": 4044,
      "y!▁": 4045,
      "juic": 4046,
      "do▁that": 4047,
      "it.▁": 4048,
      "But": 4049,
      "wave▁": 4050,
      "vegetable": 4051,
      "he▁heard▁a▁": 4052,
      "glu": 4053,
      "important": 4054,
      "caterpill": 4055,
      "found": 4056,
      "tion": 4057,
      "seat": 4058,
      ".▁They▁played▁": 4059,
      "seemed▁": 4060,
      "er▁was▁": 4061,
      "face▁and▁": 4062,
      "grabbed▁": 4063,
      "cold▁and▁": 4064,
      "found▁some▁": 4065,
      ".▁She▁had▁a▁": 4066,
      "y.▁\"": 4067,
      "ocean": 4068,
      "issor": 4069,
      "good▁at▁": 4070,
      "leaves▁": 4071,
      "fox": 4072,
      "would▁always▁": 4073,
      "Sammy▁": 4074,
      "dinosaur": 4075,
      "nest": 4076,
      "cat▁named▁": 4077,
      "ed,▁and▁": 4078,
      ".▁The▁girl▁": 4079,
      "when▁you▁": 4080,
      "Her▁mommy▁": 4081,
      "sau": 4082,
      "things▁that▁": 4083,
      "show▁her▁": 4084,
      "loved▁her▁": 4085,
      "ine": 4086,
      "others▁": 4087,
      "pretty▁and▁": 4088,
      "playing▁with▁": 4089,
      "side▁of▁the▁": 4090,
      "twir": 4091,
      ".▁You▁have▁to▁": 4092,
      "blue": 4093,
      "?â€▁": 4094,
      "brown": 4095,
      "waiting▁": 4096,
      "music▁": 4097,
      "to▁help▁": 4098,
      "yo": 4099,
      "scissor": 4100,
      ".▁Then▁they▁": 4101,
      "tool": 4102,
      "very▁special▁": 4103,
      "f▁you▁": 4104,
      "faster": 4105,
      "ed▁him▁": 4106,
      "remind": 4107,
      "ies": 4108,
      "sigh": 4109,
      "playing▁with▁her▁": 4110,
      ".▁She▁says,▁\"": 4111,
      "!â€\n\n": 4112,
      "spot": 4113,
      "▁agreed▁and▁": 4114,
      "play▁together": 4115,
      "twins▁": 4116,
      "sco": 4117,
      "if▁he▁": 4118,
      "had▁a▁lot▁of▁fun": 4119,
      "upset": 4120,
      "boy.▁He▁": 4121,
      ",\"▁said▁the▁": 4122,
      "lif": 4123,
      "eating▁": 4124,
      "last▁": 4125,
      ",▁there▁was▁a▁": 4126,
      "these▁": 4127,
      "s.\n\nOne▁day,▁": 4128,
      "That's▁a▁": 4129,
      "hidd": 4130,
      "that▁it▁was▁": 4131,
      "kitchen▁and▁": 4132,
      "manag": 4133,
      "it▁started▁to▁": 4134,
      "help▁the▁": 4135,
      "paw": 4136,
      "might": 4137,
      "e,▁a▁": 4138,
      "bout▁the▁": 4139,
      "ston": 4140,
      "anymor": 4141,
      "▁and▁her▁": 4142,
      "Mia▁and▁": 4143,
      "jar▁": 4144,
      "bright▁and▁": 4145,
      "Their▁": 4146,
      "catch▁the▁": 4147,
      "Anna▁and▁Ben▁are▁": 4148,
      "away▁": 4149,
      "on▁the▁table": 4150,
      "fix▁the▁": 4151,
      "Lily▁and▁Max▁": 4152,
      "present": 4153,
      "playing▁with▁the▁": 4154,
      "needed▁": 4155,
      "balloon▁": 4156,
      "playing▁in▁the▁": 4157,
      "is▁too▁": 4158,
      "gave▁her▁": 4159,
      "go▁away": 4160,
      "end▁of▁the▁day,▁": 4161,
      "smelled▁": 4162,
      "kitchen▁": 4163,
      "pensi": 4164,
      "friend▁and▁": 4165,
      "mind▁": 4166,
      "knowing▁": 4167,
      "said,▁\"Don't▁worry,▁": 4168,
      "expensi": 4169,
      "talk▁to▁": 4170,
      "thought▁the▁": 4171,
      "No▁": 4172,
      "cars▁and▁": 4173,
      "ran▁and▁": 4174,
      "!\"▁Anna▁": 4175,
      "I▁am": 4176,
      "delight": 4177,
      "ed▁away▁": 4178,
      "midd": 4179,
      "s▁them▁": 4180,
      ".▁There▁were▁": 4181,
      "thought▁for▁a▁moment": 4182,
      ".▁One▁": 4183,
      ".▁They▁say▁": 4184,
      "make▁her▁": 4185,
      "ment": 4186,
      ".▁Sue▁": 4187,
      "▁along": 4188,
      "dangerous": 4189,
      "should▁have▁": 4190,
      "hi": 4191,
      "Mommy▁and▁": 4192,
      "▁asked,▁\"": 4193,
      "race": 4194,
      "call▁": 4195,
      "juice▁": 4196,
      "son": 4197,
      "ood": 4198,
      ".▁C": 4199,
      "grew▁": 4200,
      "for▁being▁so▁": 4201,
      "soup": 4202,
      ".▁As▁": 4203,
      "twins.▁They▁": 4204,
      "cookies▁": 4205,
      "knew▁it▁was▁": 4206,
      "teddy▁bear▁": 4207,
      "sse": 4208,
      "Of▁course,▁": 4209,
      "take▁turn": 4210,
      "Wow": 4211,
      "bike▁": 4212,
      ".▁You▁are▁very▁": 4213,
      "something▁special▁": 4214,
      "op▁": 4215,
      "bigger▁": 4216,
      ".▁She▁did▁not▁": 4217,
      "put▁a▁": 4218,
      "▁hard▁": 4219,
      "it▁is": 4220,
      "put▁her▁": 4221,
      "wet▁and▁": 4222,
      "Lo": 4223,
      "write▁": 4224,
      "andy▁": 4225,
      ".\n\nOne▁": 4226,
      "himself▁": 4227,
      "became▁good▁": 4228,
      "chees": 4229,
      "e.▁And▁": 4230,
      "disappoint": 4231,
      "be▁careful▁": 4232,
      ".▁But▁then,▁": 4233,
      "El": 4234,
      "furry▁": 4235,
      "who▁wanted▁to▁": 4236,
      "▁as▁a▁": 4237,
      ".▁He▁liked▁to▁": 4238,
      "sque": 4239,
      "ing▁around▁": 4240,
      "to▁do▁": 4241,
      "making▁a▁": 4242,
      "▁Once▁upon▁a▁time,▁there▁was▁a▁little▁girl▁named▁Lily.▁She▁loved▁to▁play▁with▁her▁": 4243,
      "no▁matter▁": 4244,
      "elly": 4245,
      "elp": 4246,
      "s.▁One▁day,▁she▁": 4247,
      "break▁": 4248,
      "came▁a": 4249,
      "milk": 4250,
      "net": 4251,
      "something▁else": 4252,
      ".▁P": 4253,
      "gar": 4254,
      "imagin": 4255,
      "closer▁to▁the▁": 4256,
      "searched▁": 4257,
      "or▁a▁": 4258,
      "sorry▁for▁": 4259,
      "bought▁": 4260,
      "it▁was▁very▁": 4261,
      "usu": 4262,
      "What▁do▁you▁": 4263,
      ".▁He▁saw▁a▁": 4264,
      "ate▁the▁": 4265,
      "was▁an": 4266,
      "knocked▁": 4267,
      "toy▁car▁": 4268,
      "name": 4269,
      "kids": 4270,
      "ed,▁â€œ": 4271,
      "was▁so▁excited▁": 4272,
      "pile▁of▁": 4273,
      "don't▁want▁to▁": 4274,
      "until▁they▁": 4275,
      "ast": 4276,
      "There▁": 4277,
      "far▁away": 4278,
      "did▁not▁listen": 4279,
      "carry▁": 4280,
      "▁and▁they▁": 4281,
      ".▁Sometimes▁": 4282,
      "?\"▁Lily▁": 4283,
      "glow": 4284,
      "it.▁They▁": 4285,
      "name▁is▁": 4286,
      "tower▁": 4287,
      "branch": 4288,
      "espec": 4289,
      "\nThe▁": 4290,
      ".▁Sara": 4291,
      "decided▁to▁take▁a▁": 4292,
      "tig": 4293,
      "Max.▁Max▁": 4294,
      "!\"▁They▁": 4295,
      "help▁her▁": 4296,
      "ing▁is▁": 4297,
      "bottle▁": 4298,
      "drink▁": 4299,
      "friend,▁a▁": 4300,
      "start▁to▁": 4301,
      ".▁We▁are▁": 4302,
      "pictures▁": 4303,
      "tain▁": 4304,
      "shoo": 4305,
      "especi": 4306,
      "ef": 4307,
      "itch▁": 4308,
      "playing▁and▁": 4309,
      "on▁an▁adventure": 4310,
      "Kitt": 4311,
      "wide▁": 4312,
      "pink": 4313,
      "irst": 4314,
      "kite▁": 4315,
      "!▁Let's▁": 4316,
      "medic": 4317,
      "chas": 4318,
      "it.▁The▁": 4319,
      "Please,▁": 4320,
      "stand▁": 4321,
      "mic": 4322,
      "peek": 4323,
      ".▁I▁was▁": 4324,
      ".\n\nThe▁girl▁": 4325,
      "coming▁from▁the▁": 4326,
      "▁Once▁upon▁a▁time,▁there▁was▁a▁little▁girl▁named▁Lily.▁She▁loved▁to▁play▁outside▁": 4327,
      "live▁": 4328,
      "bigger▁and▁": 4329,
      "protect▁": 4330,
      "dropped▁the▁": 4331,
      "▁his▁mom▁": 4332,
      "pointed▁": 4333,
      "dinn": 4334,
      "gone▁": 4335,
      "story": 4336,
      "it▁would▁": 4337,
      "form": 4338,
      "pool": 4339,
      "cozy▁": 4340,
      "elder": 4341,
      "'d▁": 4342,
      "mountain": 4343,
      "friendly": 4344,
      "After▁": 4345,
      "round": 4346,
      "kit": 4347,
      "explained▁that▁": 4348,
      "burn": 4349,
      "radi": 4350,
      "able▁to▁": 4351,
      "ten▁": 4352,
      "saw▁an▁": 4353,
      ".▁She▁saw▁a▁": 4354,
      "sometim": 4355,
      "small▁and▁": 4356,
      "her▁and▁said,▁\"": 4357,
      "was▁very▁sad▁and▁": 4358,
      ".▁Soon,▁": 4359,
      "just▁wanted▁to▁": 4360,
      "walked▁to▁the▁": 4361,
      "!\"▁\n\nThe▁": 4362,
      "e.▁When▁": 4363,
      "▁Once▁upon▁a▁time▁there▁were▁two▁": 4364,
      "taught▁": 4365,
      "for▁dinner": 4366,
      "high▁and▁": 4367,
      "▁Once▁upon▁a▁time,▁there▁was▁a▁little▁girl▁named▁Lily.▁She▁had▁a▁": 4368,
      "pin": 4369,
      "pal": 4370,
      "Every": 4371,
      "step": 4372,
      "land▁": 4373,
      "s.▁\n\n": 4374,
      "letter": 4375,
      ".▁Finally,▁": 4376,
      "was▁very▁happy▁": 4377,
      "Don't▁be▁": 4378,
      "ing.▁The▁": 4379,
      "roph": 4380,
      "Mittens▁": 4381,
      "ing.\n\n": 4382,
      "especially▁": 4383,
      "fence": 4384,
      "you▁a▁": 4385,
      "icul": 4386,
      ".▁\n\nThe▁little▁girl▁": 4387,
      "drive▁": 4388,
      "comp": 4389,
      ".▁She▁liked▁to▁": 4390,
      "▁at▁the▁park": 4391,
      "little▁boy": 4392,
      "Let▁me▁": 4393,
      "Be▁": 4394,
      "!\"▁Sam▁": 4395,
      "number": 4396,
      "sang▁": 4397,
      "come▁and▁": 4398,
      "fold": 4399,
      ".▁They▁do▁not▁": 4400,
      "doing▁": 4401,
      ".▁â€œ": 4402,
      "spoil": 4403,
      "grabbed▁a▁": 4404,
      "star▁": 4405,
      "liv": 4406,
      "my's▁": 4407,
      ".▁Bob▁": 4408,
      "?\"▁Ben": 4409,
      "jewel": 4410,
      "whisper": 4411,
      "credi": 4412,
      "▁his": 4413,
      "hide▁and▁": 4414,
      ".▁\n\nAfter▁": 4415,
      "Ali": 4416,
      "They▁are▁": 4417,
      "practic": 4418,
      "didn't▁know▁": 4419,
      "scared,▁": 4420,
      "heard▁a▁loud▁noise": 4421,
      "incredi": 4422,
      "box▁of▁": 4423,
      "snowman": 4424,
      "if▁she▁": 4425,
      "success": 4426,
      "fluff": 4427,
      "ignor": 4428,
      "my▁friend": 4429,
      "dol": 4430,
      "▁and▁started▁to▁": 4431,
      "what▁the▁": 4432,
      "usi": 4433,
      "sand▁": 4434,
      "mirr": 4435,
      "until▁she▁": 4436,
      "dad▁and▁": 4437,
      "pock": 4438,
      "nois": 4439,
      "went▁for▁a▁walk▁": 4440,
      "play▁with▁her▁": 4441,
      ".▁But": 4442,
      "▁across▁the▁": 4443,
      "sat▁down▁": 4444,
      "bin": 4445,
      ".▁The▁bear▁": 4446,
      "van": 4447,
      "was▁also▁": 4448,
      "had▁so▁much▁fun▁": 4449,
      "trick": 4450,
      "hide▁": 4451,
      "faces": 4452,
      "irp": 4453,
      "hands▁": 4454,
      ".\n\nBut▁the▁": 4455,
      "everything": 4456,
      ".▁Mia▁": 4457,
      "hair▁": 4458,
      "wro": 4459,
      "loy": 4460,
      "spr": 4461,
      "I'm": 4462,
      ".\n\n\"No,▁": 4463,
      "er.▁She▁": 4464,
      "▁arrived,▁": 4465,
      ".\n\nTim▁": 4466,
      "group▁": 4467,
      "slipp": 4468,
      "Bun": 4469,
      "In▁the▁": 4470,
      "▁Once▁upon▁a▁time,▁there▁was▁a▁boy▁named▁Timmy.▁Timmy▁": 4471,
      "Letâ€™s▁": 4472,
      "sees▁a▁": 4473,
      "up,▁": 4474,
      "▁hurt▁": 4475,
      "Ra": 4476,
      "toys,▁": 4477,
      "!▁\n\nThe▁": 4478,
      "just▁like▁": 4479,
      ".▁He▁loved▁to▁": 4480,
      "zoo": 4481,
      "▁a▁little▁": 4482,
      "bike": 4483,
      "er▁than▁": 4484,
      "by▁and▁": 4485,
      "going▁to▁the▁": 4486,
      "faster▁and▁": 4487,
      "hungry▁and▁": 4488,
      ".▁He▁says,▁\"": 4489,
      "up▁and▁down": 4490,
      "world▁around▁": 4491,
      ".\"\n\nBut▁": 4492,
      "mysterious▁": 4493,
      "back▁in▁the▁": 4494,
      "Oh,▁": 4495,
      "foot": 4496,
      ".▁She▁looked▁": 4497,
      "went▁to▁the▁park": 4498,
      "lived▁happily▁ever▁after.": 4499,
      "ed▁by▁": 4500,
      "sweet▁and▁": 4501,
      "seek": 4502,
      "dran": 4503,
      "play▁in▁the▁": 4504,
      "ed,▁but▁": 4505,
      "Jen▁": 4506,
      "ed.▁\n\n": 4507,
      "was▁about▁": 4508,
      "Lisa▁": 4509,
      "It▁is▁": 4510,
      "smiled▁and▁said,▁â€œ": 4511,
      "pieces": 4512,
      "naughty▁": 4513,
      "every▁day▁and▁": 4514,
      "End": 4515,
      "kni": 4516,
      "dig": 4517,
      "siz": 4518,
      "was▁a▁bit▁": 4519,
      ".▁She▁is▁": 4520,
      "tasty▁": 4521,
      "told▁the▁": 4522,
      "patient": 4523,
      "rela": 4524,
      "if▁they▁could▁": 4525,
      "elly▁": 4526,
      "rest▁of▁the▁": 4527,
      "picture▁of▁a▁": 4528,
      "writ": 4529,
      "brush": 4530,
      "came▁across": 4531,
      "ually,▁": 4532,
      "until▁it▁was▁": 4533,
      "pushed▁": 4534,
      "beach▁": 4535,
      "scared▁of▁the▁": 4536,
      "stories": 4537,
      "runs▁to▁the▁": 4538,
      "like▁to▁play▁with▁": 4539,
      "pillow": 4540,
      "worm": 4541,
      "full": 4542,
      "used▁the▁": 4543,
      "don't▁you▁": 4544,
      "ed▁and▁said,▁\"": 4545,
      "make▁them▁": 4546,
      "wet▁": 4547,
      "start▁": 4548,
      "said▁yes▁and▁": 4549,
      "to▁her▁mom": 4550,
      "You▁are▁very▁": 4551,
      "realis": 4552,
      "It's▁a▁": 4553,
      ".▁They▁want▁to▁": 4554,
      ".▁It": 4555,
      "Ch": 4556,
      "past": 4557,
      "pow": 4558,
      "dry": 4559,
      "xi": 4560,
      "lose▁": 4561,
      "spotted▁a▁": 4562,
      "deep▁brea": 4563,
      ".\n\n\"Hey,▁": 4564,
      "danced▁": 4565,
      "one,▁": 4566,
      "dy": 4567,
      "shak": 4568,
      "teeth": 4569,
      "meadow": 4570,
      "Lucy.▁She▁": 4571,
      "looks▁at▁": 4572,
      "it▁back": 4573,
      "until▁it▁": 4574,
      "wind": 4575,
      "hospital": 4576,
      "Thank▁you": 4577,
      "path": 4578,
      "ket▁": 4579,
      "elderly▁": 4580,
      "Max▁and▁": 4581,
      "catch▁it": 4582,
      "his▁dad▁": 4583,
      "ation▁": 4584,
      "ad▁": 4585,
      "wished▁they▁had▁": 4586,
      "grow▁": 4587,
      "said▁goodbye▁to▁the▁": 4588,
      "laughed▁and▁said,▁\"": 4589,
      "with▁them": 4590,
      "3▁year▁old▁": 4591,
      ".▁They▁were▁so▁": 4592,
      "swan": 4593,
      "blocks▁": 4594,
      "▁house▁": 4595,
      "that▁he▁could▁": 4596,
      "sun▁was▁shin": 4597,
      "age▁": 4598,
      "▁away,▁but▁": 4599,
      "go▁outside▁and▁": 4600,
      "recor": 4601,
      "went▁home▁": 4602,
      "pe▁and▁": 4603,
      "curious▁": 4604,
      "everyone": 4605,
      "boss": 4606,
      "exam": 4607,
      "What▁are▁you▁doing": 4608,
      ".▁Some▁": 4609,
      "barn": 4610,
      "suggest": 4611,
      "lim": 4612,
      "You're▁welcome,▁": 4613,
      "Mummy▁": 4614,
      "!\"▁She▁": 4615,
      ".▁Lucy▁": 4616,
      "sky▁and▁": 4617,
      "creature": 4618,
      "sunshin": 4619,
      "happy▁to▁see▁": 4620,
      "week": 4621,
      "nut": 4622,
      "felt▁much▁": 4623,
      "dolph": 4624,
      "come▁back▁": 4625,
      "fancy▁": 4626,
      "in▁its▁": 4627,
      ".▁They▁decided▁to▁": 4628,
      "off▁to▁": 4629,
      "was▁scared": 4630,
      "in▁a▁big▁": 4631,
      "how": 4632,
      "gently▁": 4633,
      "you▁will▁": 4634,
      "y.▁You▁": 4635,
      "with▁its▁": 4636,
      "touched▁the▁": 4637,
      "cried▁": 4638,
      "orn": 4639,
      "felt▁like▁": 4640,
      "ance": 4641,
      "done,▁": 4642,
      "become▁": 4643,
      "difficul": 4644,
      "where▁she▁": 4645,
      "back▁to▁his▁": 4646,
      "plat": 4647,
      "to▁a": 4648,
      ".▁Can▁you▁": 4649,
      "set▁and▁": 4650,
      "wha": 4651,
      "asked▁his▁mom▁": 4652,
      ".▁\n\nThe▁end.": 4653,
      "'s▁house": 4654,
      "Re": 4655,
      "was▁so▁happy▁that▁he▁": 4656,
      "to▁ask▁": 4657,
      "took▁him▁": 4658,
      "many": 4659,
      "saw▁lots▁of▁": 4660,
      "crying▁and▁": 4661,
      "Emily▁": 4662,
      "scra": 4663,
      "straw": 4664,
      "with▁all▁": 4665,
      ".▁She▁saw▁the▁": 4666,
      "cop": 4667,
      "morning▁": 4668,
      "garden,▁": 4669,
      "turt": 4670,
      ".\n\nThen,▁": 4671,
      "sill": 4672,
      "pull▁": 4673,
      ".▁Sam": 4674,
      "put▁his▁": 4675,
      "s.▁And▁": 4676,
      "ward▁": 4677,
      "part▁": 4678,
      "▁Once▁upon▁a▁time,▁a▁": 4679,
      "in▁the▁sunshin": 4680,
      "field▁": 4681,
      "made▁sure▁": 4682,
      "finish▁": 4683,
      "you▁have▁to▁be▁": 4684,
      ".▁I▁love▁you": 4685,
      "lots▁of▁fun": 4686,
      "idea▁": 4687,
      "▁all▁day": 4688,
      "scary": 4689,
      "excited▁": 4690,
      ".▁But▁he▁": 4691,
      "Blu": 4692,
      "cute▁": 4693,
      "weir": 4694,
      "paint▁": 4695,
      "ter▁": 4696,
      "jeal": 4697,
      "jump▁and▁": 4698,
      "tum": 4699,
      "more▁careful▁": 4700,
      "smile▁on▁her▁": 4701,
      "treasure▁": 4702,
      "plane▁": 4703,
      "cloud▁": 4704,
      "cry▁and▁": 4705,
      "little▁bird": 4706,
      "it▁had▁": 4707,
      ".▁He▁tried▁to▁": 4708,
      "Then,▁": 4709,
      "Tom.▁Tom▁": 4710,
      "proud▁of▁her▁": 4711,
      "penc": 4712,
      "Elli": 4713,
      "played▁together": 4714,
      ".\n\nThe▁man▁": 4715,
      "wanted": 4716,
      "frigh": 4717,
      "nor": 4718,
      "ways": 4719,
      "chee": 4720,
      ".\"▁\n\nLily▁": 4721,
      "carry": 4722,
      "por": 4723,
      "▁angry.▁She▁": 4724,
      "hands": 4725,
      "ny.▁": 4726,
      "illy": 4727,
      "▁afraid▁": 4728,
      "it▁could▁": 4729,
      "life": 4730,
      "blow": 4731,
      "!\"▁Tim▁": 4732,
      "▁asked▁his▁": 4733,
      "Peter▁": 4734,
      "band": 4735,
      "ran▁around▁the▁": 4736,
      "▁hour": 4737,
      "gaz": 4738,
      "ing▁around": 4739,
      "brough": 4740,
      "play▁with▁you": 4741,
      "out▁her▁": 4742,
      "remembered▁the▁": 4743,
      "strange": 4744,
      "Timmy,▁": 4745,
      "looked▁very▁": 4746,
      "eager▁": 4747,
      ".▁Suddenly,▁a▁": 4748,
      "does": 4749,
      "Bel": 4750,
      "if▁they▁": 4751,
      "ed,▁she▁": 4752,
      "tough": 4753,
      "▁admir": 4754,
      ".\n\nTimmy▁": 4755,
      "horse": 4756,
      "▁angry.▁He▁": 4757,
      ".\n\n\"Mom,▁": 4758,
      "pot": 4759,
      "tasted▁": 4760,
      "dark▁and▁": 4761,
      "hidden▁": 4762,
      "Dan": 4763,
      "▁anyone▁": 4764,
      "sold": 4765,
      "because▁it▁was▁": 4766,
      "both": 4767,
      "▁The▁": 4768,
      ".▁She▁was▁so▁": 4769,
      "kindne": 4770,
      "had▁so▁much▁fun": 4771,
      "were▁twins▁": 4772,
      ",\"▁she▁said.▁\"": 4773,
      "garden▁and▁": 4774,
      "compet": 4775,
      "hugged▁and▁": 4776,
      "watching▁": 4777,
      ".▁M": 4778,
      "ran▁after▁": 4779,
      "dizz": 4780,
      "trip": 4781,
      "polo": 4782,
      ".\"\n\nShe▁": 4783,
      "can▁you▁": 4784,
      "Bill": 4785,
      "Just▁then,▁": 4786,
      "learned▁to▁": 4787,
      "she▁had▁to▁": 4788,
      "runs▁to▁": 4789,
      "bat": 4790,
      "did▁it": 4791,
      "Look▁at▁": 4792,
      "squeez": 4793,
      ".▁Sarah▁": 4794,
      "favour": 4795,
      "ce,▁": 4796,
      "said,▁\"I'm▁": 4797,
      "gray▁": 4798,
      "where▁the▁": 4799,
      "hard▁to▁": 4800,
      "flowers": 4801,
      "see▁it": 4802,
      "gues": 4803,
      "even▁though▁": 4804,
      "promised▁": 4805,
      "eat▁it": 4806,
      "stuck": 4807,
      ".\n\nA▁": 4808,
      "litt": 4809,
      "soldi": 4810,
      "felt▁the▁": 4811,
      "ed,▁he▁": 4812,
      ".▁He▁knew▁": 4813,
      "ach": 4814,
      "middle▁": 4815,
      "was▁about▁to▁": 4816,
      "▁Once▁upon▁a▁time▁there▁was▁a▁little▁girl▁named▁": 4817,
      "exciting▁": 4818,
      ".▁Now,▁": 4819,
      "silly": 4820,
      "kind▁to▁": 4821,
      "a▁great▁": 4822,
      "guit": 4823,
      "up▁her▁": 4824,
      "what▁to▁do": 4825,
      "spun": 4826,
      "where▁he▁": 4827,
      "find▁out▁": 4828,
      "threw▁the▁": 4829,
      "clean▁and▁": 4830,
      ".\n\nFinally,▁": 4831,
      ".▁Suddenly,▁she▁": 4832,
      "held▁the▁": 4833,
      "games": 4834,
      "gift▁": 4835,
      "was▁feeling▁": 4836,
      "didn't▁like▁": 4837,
      "ing▁and▁the▁": 4838,
      "thankful▁": 4839,
      "meet▁": 4840,
      "fall▁": 4841,
      "Max's▁": 4842,
      "We": 4843,
      "lemon": 4844,
      "elev": 4845,
      "▁a▁big▁hug": 4846,
      "clever": 4847,
      "unusu": 4848,
      "said▁that▁": 4849,
      "soup▁": 4850,
      "glad▁you▁": 4851,
      "Tom▁are▁": 4852,
      "libr": 4853,
      ".\n\n\"Thank▁you,▁": 4854,
      "dep": 4855,
      "was▁a▁big▁": 4856,
      "store": 4857,
      "Ow": 4858,
      ".▁You▁are▁a▁good▁": 4859,
      "his▁mommy▁": 4860,
      "clothes▁and▁": 4861,
      "▁Tom▁and▁Lily▁": 4862,
      "lo▁": 4863,
      "were▁best▁": 4864,
      "snake▁": 4865,
      "butterf": 4866,
      "what▁was▁wrong": 4867,
      "poor▁": 4868,
      "late▁": 4869,
      "!\"▁He▁": 4870,
      "frighten": 4871,
      "bucket": 4872,
      ".▁Can▁I▁": 4873,
      "lie▁": 4874,
      "places": 4875,
      "what▁they▁": 4876,
      "with▁his▁mom": 4877,
      "was▁very▁excited▁and▁": 4878,
      "▁about": 4879,
      "did▁not▁know▁": 4880,
      "clever▁": 4881,
      "▁hop": 4882,
      "had▁fun▁": 4883,
      ".▁We▁will▁": 4884,
      "but▁she▁": 4885,
      "thought▁it▁was▁a▁": 4886,
      "started▁to▁feel▁": 4887,
      "find▁it": 4888,
      "trun": 4889,
      "save▁": 4890,
      "held▁it▁": 4891,
      "going": 4892,
      "smell▁": 4893,
      "gets▁": 4894,
      "find▁something▁": 4895,
      "pump": 4896,
      "things▁to▁": 4897,
      "ship▁": 4898,
      "standing▁": 4899,
      "in▁front▁": 4900,
      "more▁and▁": 4901,
      "st▁the▁": 4902,
      "what▁it▁was": 4903,
      "proud▁and▁": 4904,
      "er▁to▁": 4905,
      "lake▁": 4906,
      "fight▁": 4907,
      "rolled▁": 4908,
      "coz": 4909,
      "I▁have▁": 4910,
      "so▁many▁": 4911,
      "sack": 4912,
      "fun▁to▁": 4913,
      "From▁that▁day▁on,▁Lily▁": 4914,
      "feel▁the▁": 4915,
      "s.▁A": 4916,
      "▁Once▁upon▁a▁time,▁there▁was▁a▁girl▁named▁": 4917,
      "playing▁with▁his▁": 4918,
      ".▁She▁asked▁her▁": 4919,
      "extr": 4920,
      "wanted▁a▁": 4921,
      "morning": 4922,
      "birdi": 4923,
      "interesting▁": 4924,
      ".▁I▁can▁": 4925,
      "brilli": 4926,
      "oon▁": 4927,
      ".▁She▁says▁": 4928,
      "drawing": 4929,
      "favourite▁": 4930,
      "towel": 4931,
      ".▁Thank▁you▁": 4932,
      "went▁to▁her▁": 4933,
      "candy▁": 4934,
      "taste▁": 4935,
      "spill": 4936,
      ".▁All▁": 4937,
      "bell": 4938,
      "ould▁you▁": 4939,
      "together▁to▁": 4940,
      "managed▁to▁": 4941,
      "clear": 4942,
      "get▁some▁": 4943,
      "ies▁": 4944,
      "terri": 4945,
      "gether,▁they▁": 4946,
      "icy": 4947,
      "stubb": 4948,
      "irt▁": 4949,
      "often▁": 4950,
      "went▁to▁a▁": 4951,
      "Bu": 4952,
      "that▁day": 4953,
      "float": 4954,
      "!\"▁Mia▁": 4955,
      "class": 4956,
      "excitement": 4957,
      "extra▁": 4958,
      "frown": 4959,
      ",\"▁Anna▁": 4960,
      "relax": 4961,
      "of▁their▁": 4962,
      "puddle": 4963,
      "come▁to▁": 4964,
      "oc": 4965,
      "creature▁": 4966,
      "bedi": 4967,
      "cher": 4968,
      "ction": 4969,
      "loud▁and▁": 4970,
      "keep▁it▁": 4971,
      "e▁too": 4972,
      "room,▁": 4973,
      "Tim's▁": 4974,
      "'▁": 4975,
      "bread": 4976,
      "e.▁We▁": 4977,
      "?\"▁he▁ask": 4978,
      "Thank▁you▁for▁": 4979,
      "obedi": 4980,
      ".\"\n\nAnna▁": 4981,
      "grace": 4982,
      "ccep": 4983,
      ".\n\nSuddenly,▁a▁": 4984,
      "leaves▁and▁": 4985,
      "scal": 4986,
      "was▁so▁happy▁to▁have▁": 4987,
      "town▁": 4988,
      "scarf": 4989,
      "gasp": 4990,
      "answer": 4991,
      "gave▁them▁": 4992,
      "Sue": 4993,
      "▁here▁": 4994,
      "▁amazing": 4995,
      "came▁over▁to▁": 4996,
      "felt▁sad▁": 4997,
      "mom's▁": 4998,
      "baby": 4999,
      "outside.▁One▁day,▁": 5000,
      "we▁can": 5001,
      "was▁so▁happy▁that▁she▁": 5002,
      "they▁decided▁to▁": 5003,
      "irt▁and▁": 5004,
      "chase▁": 5005,
      "deli": 5006,
      "bik": 5007,
      "stuff": 5008,
      "But▁the▁": 5009,
      "got▁very▁": 5010,
      "park,▁": 5011,
      ".\n\nThe▁end.": 5012,
      "safel": 5013,
      "flash": 5014,
      "sett": 5015,
      "along": 5016,
      "rainbow▁": 5017,
      "leave▁the▁": 5018,
      "things.▁She▁": 5019,
      "big▁h": 5020,
      "▁Tim▁and▁": 5021,
      "put▁on▁his▁": 5022,
      "nel": 5023,
      "▁away▁from▁": 5024,
      "Ge": 5025,
      "smiled▁a": 5026,
      "sad▁and▁angr": 5027,
      "Duck": 5028,
      "smile▁on▁his▁": 5029,
      ".▁She▁knew▁": 5030,
      "ruin": 5031,
      "mommy▁and▁dadd": 5032,
      "wrote▁": 5033,
      "replied▁": 5034,
      "happines": 5035,
      "nodded.▁She▁": 5036,
      "?\"▁Tom": 5037,
      "sneez": 5038,
      "Emma": 5039,
      "get▁to▁": 5040,
      "leaf": 5041,
      ".▁That's▁": 5042,
      "carefully": 5043,
      "much▁fun": 5044,
      "fier": 5045,
      "wander": 5046,
      "bus": 5047,
      ".▁When▁she▁": 5048,
      ".\n\nBen▁": 5049,
      "quickly": 5050,
      ",\"▁her▁mom▁": 5051,
      "Mia▁are▁": 5052,
      "we▁have▁to▁": 5053,
      "try▁it": 5054,
      "too.▁They▁": 5055,
      "cow▁": 5056,
      "claim": 5057,
      "song▁": 5058,
      "couch": 5059,
      "worry": 5060,
      "again.": 5061,
      "enda": 5062,
      "owl": 5063,
      "toy▁and▁": 5064,
      "▁again.▁They▁": 5065,
      "ble▁and▁": 5066,
      "tan": 5067,
      "fooli": 5068,
      ".\n\n\"Can▁we▁": 5069,
      "made▁them▁": 5070,
      "smiling": 5071,
      "did▁not▁know": 5072,
      "made▁of▁": 5073,
      "frid": 5074,
      "Ben▁and▁Mia▁": 5075,
      ".▁Can▁we▁": 5076,
      "helping▁": 5077,
      ".\n\nThen▁": 5078,
      "girl▁called▁": 5079,
      "rown": 5080,
      "y.▁Lily▁": 5081,
      "shiny": 5082,
      "bunny": 5083,
      "owner": 5084,
      "pumpk": 5085,
      "bad▁and▁": 5086,
      "how▁much▁": 5087,
      "runs": 5088,
      "corn▁": 5089,
      "giving▁": 5090,
      ".▁He▁decided▁to▁": 5091,
      ",▁as▁": 5092,
      "do▁something▁": 5093,
      "uniqu": 5094,
      "Geor": 5095,
      "cudd": 5096,
      "cover▁": 5097,
      "dog,▁": 5098,
      "enjoy▁the▁": 5099,
      "shoes▁and▁": 5100,
      "yog": 5101,
      "kind▁of▁": 5102,
      "y.▁We▁": 5103,
      "hello▁": 5104,
      "spent▁the▁": 5105,
      ".▁She▁saw▁": 5106,
      "ves": 5107,
      "friends.▁He▁": 5108,
      "rock▁and▁": 5109,
      "what▁he▁": 5110,
      "heart▁": 5111,
      "So▁the▁": 5112,
      "e,▁and▁": 5113,
      "tail▁and▁": 5114,
      "e.▁She▁was▁": 5115,
      "rh": 5116,
      "pond▁and▁": 5117,
      "od": 5118,
      "bak": 5119,
      "sni": 5120,
      "toma": 5121,
      ".▁She▁would▁": 5122,
      "!\"▁Lily▁said.▁\"": 5123,
      "try▁and▁": 5124,
      "said▁they▁": 5125,
      "determined▁to▁": 5126,
      "happi": 5127,
      "bigger": 5128,
      ",▁â€œ": 5129,
      "dance": 5130,
      "exclaim": 5131,
      "competit": 5132,
      "him▁the▁": 5133,
      "store▁to▁": 5134,
      "shook▁her▁": 5135,
      "wake▁": 5136,
      ".▁Inside▁the▁": 5137,
      "fake▁": 5138,
      "ina▁": 5139,
      ".▁All▁the▁": 5140,
      "Suddenly,▁": 5141,
      "banana": 5142,
      "drop": 5143,
      ",â€▁": 5144,
      "said▁he▁": 5145,
      "Johnny▁": 5146,
      "things.▁He▁": 5147,
      ".▁She▁decided▁to▁": 5148,
      "measur": 5149,
      "join": 5150,
      "what▁you▁": 5151,
      "shared▁the▁": 5152,
      "ive": 5153,
      "had▁a▁lot▁of▁fun▁": 5154,
      "funny": 5155,
      "hear▁the▁": 5156,
      "thought▁it▁would▁be▁": 5157,
      "out▁his▁": 5158,
      "match": 5159,
      "spider▁": 5160,
      "make▁sure▁": 5161,
      "e!▁": 5162,
      "e-": 5163,
      "lucky▁": 5164,
      "they▁saw▁a▁": 5165,
      ",▁but▁she▁was▁": 5166,
      "wagged▁his▁": 5167,
      "party▁": 5168,
      "corner": 5169,
      "some▁of▁the▁": 5170,
      ".▁As▁he▁": 5171,
      "went▁on▁a▁": 5172,
      "job▁": 5173,
      "had▁a▁wonderful▁": 5174,
      "herself▁": 5175,
      "▁animal▁": 5176,
      "walking,▁": 5177,
      "able": 5178,
      "▁apple": 5179,
      "dog.▁The▁dog▁": 5180,
      "End.": 5181,
      "hamm": 5182,
      "have▁many▁": 5183,
      "cookies▁and▁": 5184,
      "cheese": 5185,
      "feet": 5186,
      ".▁Suddenly,▁he▁": 5187,
      "snugg": 5188,
      "tree.▁": 5189,
      "throw▁": 5190,
      ".▁She▁loved▁to▁": 5191,
      ".▁Tommy▁": 5192,
      "machin": 5193,
      "filled▁the▁": 5194,
      "for▁them": 5195,
      "bled▁": 5196,
      ".▁He▁does▁not▁": 5197,
      "they▁arrived▁": 5198,
      "go▁home": 5199,
      "jungle": 5200,
      ".\n\nSo,▁": 5201,
      "Sam,▁": 5202,
      "closer▁look": 5203,
      "bitt": 5204,
      "hiding▁": 5205,
      "learned▁to▁be▁": 5206,
      "teach▁": 5207,
      "eles": 5208,
      "loved▁to▁play▁outside▁": 5209,
      "oa": 5210,
      "horse▁": 5211,
      ",▁Tom": 5212,
      "pok": 5213,
      "es▁were▁": 5214,
      "what▁is▁": 5215,
      "way▁and▁": 5216,
      "Jam": 5217,
      "was▁very▁sad": 5218,
      "Who▁": 5219,
      "should▁be▁": 5220,
      ".\n\nThe▁boy▁": 5221,
      "comfortable": 5222,
      "Let's▁go▁": 5223,
      "tho": 5224,
      "ere,▁": 5225,
      "▁angry▁": 5226,
      "monkey": 5227,
      "shock": 5228,
      "dough": 5229,
      "the▁girl▁": 5230,
      "letter▁": 5231,
      "elephant": 5232,
      "tells▁": 5233,
      "foun": 5234,
      ".▁Tim▁and▁": 5235,
      "told▁them▁": 5236,
      "me.▁": 5237,
      "cup▁": 5238,
      "famous▁": 5239,
      ".▁They▁say,▁\"": 5240,
      "▁animals▁": 5241,
      "said▁they▁were▁": 5242,
      "grass▁": 5243,
      "mirror": 5244,
      "blue▁and▁": 5245,
      "bushe": 5246,
      "puzzle": 5247,
      ".▁I▁like▁": 5248,
      "s.\"\n\n": 5249,
      ".▁John▁": 5250,
      "frag": 5251,
      "giz": 5252,
      "epend": 5253,
      "time▁and▁": 5254,
      "birthday": 5255,
      "toys▁in▁the▁": 5256,
      "books▁and▁": 5257,
      "on▁the▁wall": 5258,
      "was▁gone": 5259,
      "independ": 5260,
      "said▁to▁the▁": 5261,
      "dependa": 5262,
      "with▁your▁": 5263,
      "ventually,▁": 5264,
      "bucket▁": 5265,
      "rescu": 5266,
      "animal▁": 5267,
      "blocks▁and▁": 5268,
      "happy▁to▁be▁": 5269,
      "hero": 5270,
      "hal": 5271,
      "Max,▁": 5272,
      "spinn": 5273,
      "went▁hom": 5274,
      "Whenever▁": 5275,
      "felt▁a▁little▁": 5276,
      ".▁Sally▁": 5277,
      "tree.▁She▁": 5278,
      "s.▁We▁": 5279,
      "ilt": 5280,
      "lin": 5281,
      "cave": 5282,
      "exploring▁the▁": 5283,
      "have▁any▁": 5284,
      "Look▁": 5285,
      ".▁Suddenly▁": 5286,
      "said▁she▁": 5287,
      "ved▁the▁": 5288,
      "bri": 5289,
      "me▁and▁": 5290,
      "took▁a▁deep▁brea": 5291,
      "was▁a▁little▁": 5292,
      "that▁her▁": 5293,
      "the▁most▁": 5294,
      ".▁So,▁she▁": 5295,
      "under▁a▁": 5296,
      "Mark▁": 5297,
      "fix▁it": 5298,
      "!▁H": 5299,
      "opp": 5300,
      "branche": 5301,
      "stick▁and▁": 5302,
      "skipped▁": 5303,
      "ling": 5304,
      "might▁be▁": 5305,
      "basket▁": 5306,
      "was▁excited▁to▁": 5307,
      "prince▁": 5308,
      "al▁and▁": 5309,
      "Lucy": 5310,
      "yourself": 5311,
      "!\"\n\nLily▁": 5312,
      "adventure": 5313,
      "up▁his▁": 5314,
      "felt▁better": 5315,
      "parro": 5316,
      "smiled▁and▁hugged▁": 5317,
      "respect": 5318,
      ".▁He▁ran▁": 5319,
      "promise": 5320,
      "scrat": 5321,
      "spicy▁": 5322,
      ".▁It▁has▁": 5323,
      "!\"▁Sara▁": 5324,
      "fell▁down": 5325,
      "smart▁": 5326,
      "orig": 5327,
      "Maybe▁we▁can▁": 5328,
      ".▁His▁name▁was▁": 5329,
      "sour": 5330,
      "enor": 5331,
      "it▁too": 5332,
      "said▁the▁": 5333,
      "first,▁": 5334,
      "enormou": 5335,
      "wonderful": 5336,
      "seed": 5337,
      ",\"▁Lily▁said.▁\"": 5338,
      "secret": 5339,
      "him▁and▁said,▁\"": 5340,
      "Ru": 5341,
      "read▁the▁": 5342,
      "best▁friend": 5343,
      "what▁happened": 5344,
      "days▁": 5345,
      "money▁": 5346,
      "came▁into▁the▁": 5347,
      ".▁\n\nThey▁": 5348,
      "police▁": 5349,
      "sorry.▁He▁": 5350,
      "end,▁": 5351,
      ".\n\nJohn▁": 5352,
      "nest▁": 5353,
      "forgot▁about▁the▁": 5354,
      "ed▁and▁the▁": 5355,
      "hug▁and▁": 5356,
      "▁here": 5357,
      ".\n\nJack▁": 5358,
      "tea▁": 5359,
      "behind▁a▁": 5360,
      "once▁": 5361,
      "powerful▁": 5362,
      "hit▁the▁": 5363,
      "sounded▁": 5364,
      "cake▁and▁": 5365,
      ".▁But▁she▁": 5366,
      "shirt": 5367,
      "crab▁": 5368,
      "soar": 5369,
      "Lily▁and▁Ben": 5370,
      "rud": 5371,
      ".▁She▁ran▁": 5372,
      "!\"▁the▁": 5373,
      "driver": 5374,
      "build▁a▁": 5375,
      "origin": 5376,
      "Ba": 5377,
      "played▁with▁": 5378,
      "was▁glad▁": 5379,
      "two▁of▁them▁": 5380,
      "crawled▁": 5381,
      "looked▁around▁and▁saw▁a▁": 5382,
      "cut▁the▁": 5383,
      "surprised▁and▁": 5384,
      "hunt": 5385,
      "said,▁\"Okay,▁": 5386,
      "grateful": 5387,
      "said,▁\"We▁": 5388,
      "dog▁and▁": 5389,
      "ing▁it": 5390,
      "have▁it": 5391,
      "know▁what▁to▁do": 5392,
      "pologiz": 5393,
      "wealth": 5394,
      "Leo▁": 5395,
      "wash▁": 5396,
      "Once▁": 5397,
      "next▁to▁": 5398,
      "Sall": 5399,
      "old▁lady▁": 5400,
      "!▁We▁": 5401,
      "find▁some▁": 5402,
      "mad▁": 5403,
      "follow▁": 5404,
      "asked▁him▁": 5405,
      "jelly": 5406,
      "chang": 5407,
      "ing▁it▁": 5408,
      "stat": 5409,
      "Lily▁are▁": 5410,
      "help▁me": 5411,
      "learn▁new▁": 5412,
      "ever▁seen": 5413,
      "forgot▁to▁": 5414,
      "drum": 5415,
      "take▁care▁of▁": 5416,
      "lolli": 5417,
      "apple": 5418,
      "memor": 5419,
      "not▁be▁": 5420,
      "umbrel": 5421,
      "Mom▁and▁Dad": 5422,
      "helped▁the▁": 5423,
      "closed▁her▁": 5424,
      "have▁a▁big▁": 5425,
      ",▁Ben": 5426,
      ".▁When▁he▁": 5427,
      ".▁With": 5428,
      "bump": 5429,
      "opened▁it": 5430,
      "bough": 5431,
      "used▁to▁": 5432,
      "priz": 5433,
      "put▁some▁": 5434,
      "ughter": 5435,
      ".▁She▁tried▁to▁": 5436,
      "bald▁": 5437,
      "bracel": 5438,
      "lollipop": 5439,
      "higher▁and▁": 5440,
      "sugar": 5441,
      "closet": 5442,
      "moder": 5443,
      "in▁the▁grass": 5444,
      "hear▁a▁": 5445,
      "ched": 5446,
      "mommy▁and▁daddy▁": 5447,
      ".\n\nâ€œ": 5448,
      "in▁her▁hand": 5449,
      "house,▁": 5450,
      "laughing▁and▁": 5451,
      "chose▁": 5452,
      "until▁the▁sun▁": 5453,
      "in▁the▁park.▁One▁day,▁they▁": 5454,
      "motor": 5455,
      "chicken": 5456,
      "sunny▁day,▁": 5457,
      "father▁": 5458,
      "oven": 5459,
      "key": 5460,
      "choose▁": 5461,
      "had▁a▁great▁time▁": 5462,
      "unkno": 5463,
      "nat": 5464,
      ".▁\n\nShe▁": 5465,
      ".▁They▁see▁": 5466,
      "man▁and▁": 5467,
      "river▁": 5468,
      "want▁the▁": 5469,
      "smart▁and▁": 5470,
      "said▁goodbye▁to▁": 5471,
      "green": 5472,
      "daughter": 5473,
      "inside.▁She▁": 5474,
      "Sam▁are▁": 5475,
      "fell▁asleep": 5476,
      "lean": 5477,
      "plant▁": 5478,
      "understand▁why▁": 5479,
      "Timmy.▁": 5480,
      "Un": 5481,
      "friends.▁She▁": 5482,
      "flying": 5483,
      "Molly": 5484,
      "▁John▁": 5485,
      "ith▁": 5486,
      "ed▁its▁": 5487,
      "quiet▁": 5488,
      "to▁have▁": 5489,
      "what▁she▁": 5490,
      "pota": 5491,
      ".▁As▁she▁": 5492,
      "flag": 5493,
      "wings▁and▁": 5494,
      "moon": 5495,
      "rode▁": 5496,
      "strugg": 5497,
      "friends▁were▁": 5498,
      "said,▁\"That▁": 5499,
      "he▁could▁not▁": 5500,
      "Anna,▁": 5501,
      "dream▁": 5502,
      "vie": 5503,
      ".\n\nSuddenly,▁the▁": 5504,
      "ay": 5505,
      "Liz": 5506,
      "picks▁": 5507,
      "his▁friend▁": 5508,
      "told▁her": 5509,
      "moment": 5510,
      "clum": 5511,
      "admir": 5512,
      "he▁decided▁to▁": 5513,
      "him.▁She▁": 5514,
      "pirat": 5515,
      ".\n\nBut▁then▁": 5516,
      "he▁couldn't▁": 5517,
      "spend▁": 5518,
      ".▁It▁is▁very▁": 5519,
      "mighty▁": 5520,
      "if": 5521,
      "costum": 5522,
      "s▁for▁": 5523,
      "ge,▁": 5524,
      "follow▁the▁": 5525,
      "wolf▁": 5526,
      "nur": 5527,
      "▁Once▁there▁was▁a▁little▁girl▁named▁": 5528,
      "side": 5529,
      "Mama": 5530,
      "stam": 5531,
      ".▁It▁was▁a▁big▁": 5532,
      "robot▁": 5533,
      "word▁": 5534,
      "ing▁their▁": 5535,
      "sand▁and▁": 5536,
      "liz": 5537,
      "usie▁": 5538,
      "y▁the▁": 5539,
      "feeling": 5540,
      "swing▁and▁": 5541,
      "play▁with▁me": 5542,
      "Kim": 5543,
      "loyal▁": 5544,
      "mud": 5545,
      "book▁and▁": 5546,
      "then▁the▁": 5547,
      "sniff": 5548,
      "Billy": 5549,
      "on▁its▁": 5550,
      "took▁turn": 5551,
      "went▁back▁hom": 5552,
      "smiles.▁She▁": 5553,
      "showed▁the▁": 5554,
      "sight": 5555,
      "smiled.▁They▁": 5556,
      "From▁that▁day▁on,▁the▁": 5557,
      "hett": 5558,
      "diam": 5559,
      "check": 5560,
      "crack": 5561,
      "buy▁a▁": 5562,
      "mer": 5563,
      "ia▁": 5564,
      "Zo": 5565,
      "guilt": 5566,
      "should": 5567,
      "sal": 5568,
      "crying": 5569,
      "figure▁": 5570,
      "blanket▁": 5571,
      "here,▁": 5572,
      "chair▁": 5573,
      "explore▁and▁": 5574,
      "knew▁the▁": 5575,
      "▁angry": 5576,
      "dolls▁and▁": 5577,
      "go▁on▁the▁": 5578,
      "Come▁on,▁let's▁": 5579,
      "John▁and▁": 5580,
      "family▁and▁": 5581,
      "was▁getting▁": 5582,
      "pepp": 5583,
      "because▁the▁": 5584,
      "▁Once▁upon▁a▁time,▁in▁a▁small▁": 5585,
      "regu": 5586,
      "!▁That▁": 5587,
      "stup": 5588,
      "Her▁mom▁smiled▁and▁said,▁\"": 5589,
      "bake▁": 5590,
      "woke▁up▁": 5591,
      "new▁friend▁": 5592,
      "▁asham": 5593,
      "freez": 5594,
      "brown▁and▁": 5595,
      ".▁One▁day,▁Lily▁": 5596,
      "what▁are▁you▁do": 5597,
      "▁high▁": 5598,
      "share": 5599,
      "redi": 5600,
      "ingredi": 5601,
      "?â€\n\n": 5602,
      "who▁had▁": 5603,
      "▁an▁idea": 5604,
      "dinner▁": 5605,
      "sitting▁on▁a▁": 5606,
      "dish": 5607,
      "other▁side▁of▁the▁": 5608,
      "it▁out": 5609,
      "gentle": 5610,
      "it▁all▁": 5611,
      "prepar": 5612,
      "chea": 5613,
      "Now,▁": 5614,
      "good▁and▁": 5615,
      "yarn": 5616,
      "put▁it▁in▁the▁": 5617,
      "upset▁and▁": 5618,
      "opened▁the▁door▁and▁": 5619,
      "was▁angry▁and▁": 5620,
      "ers▁and▁": 5621,
      ".▁It▁had▁a▁": 5622,
      "spag": 5623,
      "spaghett": 5624,
      "the▁right▁": 5625,
      "go▁back▁to▁the▁": 5626,
      "Se": 5627,
      "it.": 5628,
      "run▁away": 5629,
      "kitten▁": 5630,
      "outside.▁She▁": 5631,
      "came▁across▁a▁": 5632,
      "play▁with▁your▁": 5633,
      "cars▁": 5634,
      "pean": 5635,
      "ry▁and▁": 5636,
      "qua": 5637,
      "offic": 5638,
      "spe": 5639,
      "hole▁and▁": 5640,
      "3▁years▁": 5641,
      "harm": 5642,
      ".\n\nWhen▁the▁": 5643,
      "found▁it▁": 5644,
      "chirp": 5645,
      "kinds▁of▁": 5646,
      "back▁and▁for": 5647,
      "on▁the▁ground▁and▁": 5648,
      "crown": 5649,
      "group▁of▁": 5650,
      ".\n\nAs▁they▁": 5651,
      "bag▁and▁": 5652,
      "vi": 5653,
      "eas": 5654,
      "mask": 5655,
      ",\"▁she▁said": 5656,
      "repa": 5657,
      "gathered▁": 5658,
      "reach▁": 5659,
      "ts▁to▁": 5660,
      "mommy,▁": 5661,
      "love▁you": 5662,
      "her▁friend▁": 5663,
      "met▁": 5664,
      "let▁me▁": 5665,
      "wearing▁a▁": 5666,
      "running▁and▁": 5667,
      "ed▁that▁the▁": 5668,
      "her▁dad▁": 5669,
      "cod": 5670,
      "valuable▁": 5671,
      "pocket▁and▁": 5672,
      "flower▁and▁": 5673,
      "seemed▁to▁": 5674,
      "when▁she▁was▁": 5675,
      "▁Sara▁and▁": 5676,
      "their▁hom": 5677,
      "It▁was▁": 5678,
      "banda": 5679,
      "spea": 5680,
      "when▁it▁": 5681,
      "ing▁with▁": 5682,
      "hears▁": 5683,
      "balan": 5684,
      "it▁with▁": 5685,
      "comfortable▁": 5686,
      "colourful▁": 5687,
      "open▁it": 5688,
      "flexi": 5689,
      "splashed▁": 5690,
      "to▁come▁": 5691,
      "pleas": 5692,
      "dropped▁": 5693,
      "ed▁by▁the▁": 5694,
      "Lila▁and▁Ben▁": 5695,
      "her▁arm": 5696,
      "cy": 5697,
      "never▁seen": 5698,
      "never▁seen▁": 5699,
      "things.▁They▁": 5700,
      "people▁and▁": 5701,
      "said,▁\"It's▁": 5702,
      "bag▁of▁": 5703,
      "birthday▁": 5704,
      "bloom": 5705,
      "Mr.▁": 5706,
      "their▁house": 5707,
      "go▁to▁the▁park": 5708,
      "hot▁and▁": 5709,
      "ingredient": 5710,
      "wished▁he▁had▁": 5711,
      "his▁favorite▁": 5712,
      "said,▁\"You▁": 5713,
      "for▁a▁walk": 5714,
      "edge▁": 5715,
      "inside▁to▁": 5716,
      "caterpillar▁": 5717,
      "beet": 5718,
      "said▁goodbye▁and▁": 5719,
      "pushed▁the▁": 5720,
      "them.\n\n\"": 5721,
      "themsel": 5722,
      ".▁\"I▁": 5723,
      "march": 5724,
      "gave▁it▁": 5725,
      "said▁â€œ": 5726,
      "ending▁": 5727,
      "Go▁away": 5728,
      "ach▁": 5729,
      "even▁if▁": 5730,
      "anything▁": 5731,
      "shone▁": 5732,
      "buy▁some▁": 5733,
      "clean▁up▁the▁": 5734,
      "belong▁": 5735,
      "chew": 5736,
      "s▁were▁so▁": 5737,
      "compass": 5738,
      "distance": 5739,
      "track": 5740,
      ".▁The▁little▁boy▁": 5741,
      "is▁my▁": 5742,
      "▁again.▁He▁": 5743,
      "▁about▁a▁": 5744,
      "thirst": 5745,
      "careles": 5746,
      "looking▁for": 5747,
      "pebb": 5748,
      "glo": 5749,
      "print": 5750,
      "batter": 5751,
      "It▁was▁a▁": 5752,
      "gold": 5753,
      "drew": 5754,
      "meet": 5755,
      "middle▁of▁the▁": 5756,
      "went▁down": 5757,
      "Timmy▁was▁": 5758,
      "in▁the▁world": 5759,
      "new▁toy": 5760,
      "did▁not▁mean▁to▁": 5761,
      "destro": 5762,
      "nodded.▁They▁": 5763,
      "▁ate▁the▁": 5764,
      "patter": 5765,
      "helped▁him▁": 5766,
      "in▁his▁hand": 5767,
      "decide▁to▁": 5768,
      "heard▁a▁voice▁": 5769,
      "persist": 5770,
      "▁Anna▁and▁Ben▁are▁": 5771,
      "clapped▁": 5772,
      "snea": 5773,
      "got▁the▁": 5774,
      "screamed▁and▁": 5775,
      "things,▁": 5776,
      "librar": 5777,
      "animals": 5778,
      "s.▁One▁day,▁they▁": 5779,
      "self▁for▁": 5780,
      "went▁outside▁and▁": 5781,
      "Tommy": 5782,
      "fresh": 5783,
      "pulled▁the▁": 5784,
      "dirty▁": 5785,
      "said,▁\"Lily,▁": 5786,
      "the▁boy▁": 5787,
      "incredible▁": 5788,
      ".▁They▁hop": 5789,
      "ordin": 5790,
      "who▁loved▁to▁play▁": 5791,
      "keep▁it": 5792,
      "afra": 5793,
      "crocod": 5794,
      "who▁loved▁": 5795,
      "hang": 5796,
      "kiss": 5797,
      "▁act": 5798,
      "cran": 5799,
      "!▁But▁": 5800,
      "enth": 5801,
      "▁how": 5802,
      "right▁away": 5803,
      "so▁they▁": 5804,
      "went▁to▁his▁": 5805,
      "came▁to▁a▁": 5806,
      "lady": 5807,
      "pige": 5808,
      "▁abo": 5809,
      "stretch": 5810,
      "tree,▁": 5811,
      "corner▁": 5812,
      "e.▁It▁": 5813,
      "proud▁of▁you": 5814,
      "time.": 5815,
      "Sorry,▁": 5816,
      "bunny▁named▁": 5817,
      "inside.▁He▁": 5818,
      "velo": 5819,
      "elli": 5820,
      "felt▁happy▁": 5821,
      "sky▁was▁": 5822,
      "envelo": 5823,
      "about▁the▁": 5824,
      "dreamed▁": 5825,
      "▁again▁soon": 5826,
      "encoura": 5827,
      ".▁It▁is▁not▁": 5828,
      "carrot▁": 5829,
      "very▁fast": 5830,
      "those▁": 5831,
      "Me▁too": 5832,
      ".▁Sara▁and▁": 5833,
      ";▁": 5834,
      "takes▁the▁": 5835,
      "sparkly▁": 5836,
      "Amy": 5837,
      "jumped▁and▁": 5838,
      "-▁a▁": 5839,
      "test": 5840,
      "notice▁": 5841,
      "?\"▁Lily▁ask": 5842,
      ".▁They▁laughed▁and▁": 5843,
      "was▁very": 5844,
      "▁argu": 5845,
      "enthusi": 5846,
      "truck▁and▁": 5847,
      "had▁a▁special▁": 5848,
      "better▁than▁": 5849,
      "happily": 5850,
      "▁around,▁": 5851,
      "they▁arrived,▁": 5852,
      "log": 5853,
      ".\n\nThe▁bird▁": 5854,
      "ed▁in▁the▁": 5855,
      "Well": 5856,
      "sweat": 5857,
      "it▁was▁so▁": 5858,
      "safe.": 5859,
      "ed▁at▁the▁": 5860,
      "▁Lily▁and▁Ben▁are▁": 5861,
      "?\"▁the▁": 5862,
      ".▁They▁saw▁a▁big▁": 5863,
      "was▁no▁longer▁": 5864,
      "on▁the▁grass": 5865,
      ".▁I▁don't▁": 5866,
      "vest": 5867,
      "picnic▁": 5868,
      "fat▁": 5869,
      "branch▁": 5870,
      "Yes,▁please": 5871,
      ".▁I'll▁": 5872,
      "ones": 5873,
      "thanked▁his▁": 5874,
      "toys.▁She▁": 5875,
      "was▁very▁excited▁to▁": 5876,
      "Anna's▁": 5877,
      ".▁Mommy▁": 5878,
      "to▁make▁the▁": 5879,
      "tub": 5880,
      "near▁": 5881,
      "butterfli": 5882,
      "machine▁": 5883,
      "farm▁": 5884,
      "blocks.▁They▁": 5885,
      "Good▁job": 5886,
      "dishe": 5887,
      "ello▁": 5888,
      "closer▁to▁": 5889,
      "caugh": 5890,
      "charm": 5891,
      "search▁": 5892,
      "instead▁": 5893,
      "y,▁the▁": 5894,
      "cryst": 5895,
      "became▁very▁": 5896,
      ".▁As▁they▁": 5897,
      "play▁with": 5898,
      "lot▁of▁fun": 5899,
      "in▁trouble": 5900,
      "add": 5901,
      "show▁his▁": 5902,
      "cage": 5903,
      "big▁dog▁": 5904,
      "it▁together": 5905,
      "backyard▁": 5906,
      "?\"▁Lily▁asked.\n\n\"": 5907,
      "need▁a▁": 5908,
      "help▁him": 5909,
      "with▁his▁friends.▁One▁day,▁": 5910,
      "light▁and▁": 5911,
      ".▁He▁says▁": 5912,
      "with▁her▁friends.▁One▁day,▁": 5913,
      "can▁make▁": 5914,
      "rece": 5915,
      "flut": 5916,
      "comput": 5917,
      "were▁playing▁in▁the▁park.▁They▁": 5918,
      "ss.▁": 5919,
      "mud▁": 5920,
      "into▁her▁": 5921,
      "pig▁": 5922,
      ".\n\nOne▁day,▁Lily▁": 5923,
      "ed,▁the▁": 5924,
      "was▁so▁proud▁of▁him": 5925,
      "too▁much▁": 5926,
      "squa": 5927,
      "hurt▁you": 5928,
      "number▁": 5929,
      ".▁Even▁": 5930,
      "obj": 5931,
      "mistak": 5932,
      "They▁all▁": 5933,
      "y.▁A": 5934,
      "tie▁": 5935,
      ".▁\n\nAt▁the▁": 5936,
      "!\"\n\nBut▁": 5937,
      "env": 5938,
      "thought▁for▁a▁moment▁and▁": 5939,
      "fter▁a▁few▁minut": 5940,
      "in▁your▁": 5941,
      "give▁the▁": 5942,
      "?▁You▁": 5943,
      "intelli": 5944,
      "great▁idea": 5945,
      "▁Once▁upon▁a▁time,▁there▁was▁a▁little▁girl▁named▁Lily▁": 5946,
      "sup": 5947,
      "smiles": 5948,
      "pengu": 5949,
      ".\"▁Tom▁": 5950,
      "reci": 5951,
      ",\"▁Sam▁": 5952,
      "be▁a▁": 5953,
      "s!▁": 5954,
      "inside,▁": 5955,
      "hurt▁and▁": 5956,
      "every▁time▁": 5957,
      "kid▁": 5958,
      "in▁the▁sky▁and▁": 5959,
      ".\n\n\"I▁": 5960,
      ".▁One▁day,▁a▁": 5961,
      "said,▁\"Mommy,▁": 5962,
      "I'm▁so▁": 5963,
      "meant": 5964,
      "doesn't▁": 5965,
      ".▁They▁saw▁": 5966,
      "ian▁": 5967,
      "only▁three▁years▁old": 5968,
      "ve,▁": 5969,
      "didn't▁listen": 5970,
      ".▁They▁saw▁a▁": 5971,
      "polit": 5972,
      "couldn't": 5973,
      "tall▁and▁": 5974,
      "green▁and▁": 5975,
      "tag": 5976,
      "▁Once▁upon▁a▁time▁there▁was▁a▁little▁girl▁called▁": 5977,
      "party": 5978,
      "pencil": 5979,
      ".\n\nMax▁": 5980,
      "looked▁so▁": 5981,
      "on▁the▁ground.▁He▁": 5982,
      "helpful": 5983,
      "helpful▁": 5984,
      "rema": 5985,
      "?\"\n\nBen▁": 5986,
      "for▁hour": 5987,
      "opened▁her▁": 5988,
      "s▁on▁": 5989,
      "▁Once▁upon▁a▁time,▁there▁was▁a▁little▁girl▁called▁": 5990,
      "to▁go▁": 5991,
      "on▁the▁floor▁and▁": 5992,
      "likes▁the▁": 5993,
      "hungry": 5994,
      "chocolate▁": 5995,
      "inde": 5996,
      "make▁a▁big▁": 5997,
      "sir": 5998,
      "in▁my▁": 5999,
      "kissed▁": 6000,
      "▁Once▁upon▁a▁time,▁there▁was▁an▁": 6001,
      "snow▁": 6002,
      "Char": 6003,
      "scoo": 6004,
      "frustrat": 6005,
      "roll▁": 6006,
      "mouth▁and▁": 6007,
      "clean▁the▁": 6008,
      "pay▁": 6009,
      "twist": 6010,
      "e,▁but▁he▁": 6011,
      "shook▁his▁": 6012,
      ".\n\nThe▁moral▁of▁the▁story▁is▁that▁": 6013,
      "-a": 6014,
      ".▁From▁that▁day▁on,▁Lily▁": 6015,
      "snowman▁": 6016,
      "chair▁and▁": 6017,
      "law": 6018,
      "pear": 6019,
      "treat▁": 6020,
      "!▁It's▁": 6021,
      "shiver": 6022,
      "help▁but▁": 6023,
      "peaceful": 6024,
      "they▁got▁to▁the▁": 6025,
      "put▁on▁their▁": 6026,
      ",▁and▁then▁": 6027,
      "stone▁": 6028,
      "watched▁as▁the▁": 6029,
      ".▁They▁are▁very▁": 6030,
      "scat": 6031,
      "or▁the▁": 6032,
      "ran▁away▁": 6033,
      "shoes": 6034,
      "had▁a▁fun▁": 6035,
      "▁again.▁She▁": 6036,
      "won▁the▁": 6037,
      "bell▁": 6038,
      ".▁Jane▁": 6039,
      "explore▁the▁world": 6040,
      "like▁it▁": 6041,
      "coming▁from▁": 6042,
      "horn": 6043,
      "coco": 6044,
      "calling▁": 6045,
      "shes▁": 6046,
      "bul": 6047,
      "she▁decided▁to▁": 6048,
      "stopped▁to▁": 6049,
      "collect▁": 6050,
      "sheep▁": 6051,
      "nicel": 6052,
      "mush": 6053,
      "mean▁and▁": 6054,
      "cheered▁": 6055,
      ".\"▁Ben▁": 6056,
      "art": 6057,
      "ses▁": 6058,
      "create▁": 6059,
      "of▁him": 6060,
      "berry▁": 6061,
      "nearby": 6062,
      "act": 6063,
      "explore": 6064,
      "exper": 6065,
      "Bobby▁": 6066,
      ".\"▁And▁": 6067,
      "compassion": 6068,
      "down▁to▁": 6069,
      "village▁": 6070,
      "felt▁sorry▁": 6071,
      "▁are▁you": 6072,
      "take▁her▁": 6073,
      "yet": 6074,
      "spir": 6075,
      "holding▁": 6076,
      "wind▁ble": 6077,
      "rare▁": 6078,
      "change▁": 6079,
      "forget": 6080,
      "to▁help▁her▁": 6081,
      "content": 6082,
      "with▁some▁": 6083,
      "tight▁and▁": 6084,
      "arrived▁": 6085,
      "rope▁": 6086,
      "ence▁": 6087,
      "felt▁sad": 6088,
      "▁animals▁and▁": 6089,
      "soon,▁": 6090,
      "vid": 6091,
      "was▁excited▁and▁": 6092,
      ".▁O": 6093,
      "▁all▁about▁": 6094,
      "gho": 6095,
      ".▁He▁thought▁": 6096,
      "was▁all▁": 6097,
      "looked▁up▁at▁the▁": 6098,
      "wrapped▁": 6099,
      "gloom": 6100,
      "rich▁": 6101,
      "keeper▁": 6102,
      "outside.▁He▁": 6103,
      ".\"\n\nHe▁": 6104,
      "be▁friends": 6105,
      ".\n\nTom▁and▁": 6106,
      ",▁feeling▁": 6107,
      "came▁back": 6108,
      "turned▁around▁and▁": 6109,
      ",\"▁he▁said.▁\"": 6110,
      "it▁is▁a▁": 6111,
      "Jer": 6112,
      "picked▁it▁up": 6113,
      "cook▁": 6114,
      "without": 6115,
      "will▁not▁": 6116,
      "topu": 6117,
      "Iâ€™": 6118,
      "Hi,▁": 6119,
      "to▁play▁with▁her▁": 6120,
      "knif": 6121,
      "small,▁": 6122,
      "clapped▁and▁": 6123,
      "sock": 6124,
      "climbed▁up▁the▁": 6125,
      "every▁day.▁One▁day,▁": 6126,
      "school▁": 6127,
      "having▁so▁much▁fun": 6128,
      "opened▁his▁": 6129,
      "play▁with▁them": 6130,
      "enormous▁": 6131,
      "weigh": 6132,
      "e.\n\nWhen▁": 6133,
      "Whi": 6134,
      "told▁her▁that▁": 6135,
      "With": 6136,
      "your▁name": 6137,
      "healthy▁": 6138,
      "berries": 6139,
      "pt▁": 6140,
      "couldnâ€™t▁": 6141,
      "go▁to▁the▁park▁": 6142,
      "said,▁\"Wow,▁": 6143,
      ".\n\nThe▁little▁boy▁": 6144,
      "outside,▁": 6145,
      "share▁his▁": 6146,
      "univer": 6147,
      "wanted▁to▁try▁": 6148,
      "Jane▁was▁": 6149,
      "they▁got▁home,▁": 6150,
      "his▁arm": 6151,
      ".▁He▁saw▁": 6152,
      "ed▁it▁to▁": 6153,
      "understood▁": 6154,
      "chest": 6155,
      "patient▁and▁": 6156,
      "opened▁the▁door": 6157,
      "learned▁that▁sometimes▁": 6158,
      "▁Once▁upon▁a▁time,▁there▁lived▁a▁": 6159,
      "coll": 6160,
      "make▁him▁": 6161,
      "that,▁": 6162,
      "off▁his▁": 6163,
      ".\n\nSoon,▁": 6164,
      "lots▁of▁fun▁": 6165,
      "Good": 6166,
      "deliciou": 6167,
      "loved▁his▁": 6168,
      "blocks": 6169,
      "mom▁hugged▁": 6170,
      "that▁is▁": 6171,
      "ice-": 6172,
      "Teddy▁": 6173,
      "get▁it": 6174,
      "bed,▁": 6175,
      "grown": 6176,
      "glass▁": 6177,
      "their▁favorite▁": 6178,
      "trust": 6179,
      ".\"▁Timmy▁": 6180,
      "pian": 6181,
      "triang": 6182,
      "work▁and▁": 6183,
      "good▁idea": 6184,
      "ous▁and▁": 6185,
      "were▁walking▁": 6186,
      "esca": 6187,
      "sorry.▁She▁": 6188,
      "show▁it▁": 6189,
      "for▁him▁": 6190,
      "octopu": 6191,
      ".▁She▁smiled▁and▁": 6192,
      "doll▁and▁": 6193,
      "wished▁she▁had▁": 6194,
      "proud▁of▁himself": 6195,
      "bird▁named▁": 6196,
      "bread▁": 6197,
      "every▁day.": 6198,
      "hig": 6199,
      "bird's▁": 6200,
      "friendly▁and▁": 6201,
      ".\"\n\nLily▁and▁Ben▁": 6202,
      "spoon▁": 6203,
      "smooth": 6204,
      "Oh▁no,▁": 6205,
      "worm▁": 6206,
      ".▁Then,▁she▁": 6207,
      "guitar": 6208,
      "used▁his▁": 6209,
      "took▁a▁big▁": 6210,
      "peaceful▁": 6211,
      ".▁How▁": 6212,
      "struc": 6213,
      "sheep": 6214,
      "refus": 6215,
      "grab▁": 6216,
      "window▁": 6217,
      "of▁a▁s": 6218,
      "three▁year▁old▁": 6219,
      "tree.▁They▁": 6220,
      "was▁so▁excited.▁She▁": 6221,
      "carto": 6222,
      "Lily▁always▁": 6223,
      "medicin": 6224,
      "closed▁his▁": 6225,
      "collect": 6226,
      "ice-cream": 6227,
      "make": 6228,
      "took▁his▁": 6229,
      "go▁home▁and▁": 6230,
      "I▁have▁a▁": 6231,
      "close▁to▁the▁": 6232,
      "him,▁\"": 6233,
      "▁Lily▁and▁Tom▁": 6234,
      "▁as▁he▁could": 6235,
      "slide.▁They▁": 6236,
      "stream": 6237,
      "bring": 6238,
      "does▁not▁want▁to▁": 6239,
      "didn't▁mean▁to▁": 6240,
      ".▁Joe▁": 6241,
      "late.▁The▁": 6242,
      "watched▁it▁": 6243,
      "rocket": 6244,
      "they▁can▁": 6245,
      "path▁": 6246,
      "round▁and▁": 6247,
      "pull▁the▁": 6248,
      ".▁His▁dad▁": 6249,
      "▁accidentally▁": 6250,
      "Sop": 6251,
      "it▁away": 6252,
      "ed▁up▁": 6253,
      "coin▁": 6254,
      "ot▁": 6255,
      "hill▁": 6256,
      "?\"▁\n\nThe▁": 6257,
      "joy▁and▁": 6258,
      "hole▁in▁the▁": 6259,
      "pho": 6260,
      "laughing": 6261,
      "gave▁it▁to▁": 6262,
      "I▁was▁": 6263,
      ".\n\nAnna▁": 6264,
      "Lily.▁He▁": 6265,
      "smile.▁They▁": 6266,
      "I▁can't▁": 6267,
      "disgu": 6268,
      "birds▁and▁": 6269,
      "you▁need▁to▁": 6270,
      "order": 6271,
      "candy": 6272,
      "playground": 6273,
      "Brown": 6274,
      ".\n\nSam▁": 6275,
      "enough▁to▁": 6276,
      "stom": 6277,
      "Luck": 6278,
      "cabin": 6279,
      "Jack▁was▁": 6280,
      "animals▁and▁": 6281,
      "trip▁": 6282,
      "brilliant▁": 6283,
      "made▁her▁feel▁": 6284,
      "should▁always▁": 6285,
      "snuggled▁": 6286,
      "that▁are▁": 6287,
      ".\"\n\nSara▁": 6288,
      "bus▁": 6289,
      "!\"▁they▁": 6290,
      "ire▁": 6291,
      ",▁who▁": 6292,
      "thie": 6293,
      "enter": 6294,
      "edge▁of▁the▁": 6295,
      "he▁was": 6296,
      "zipp": 6297,
      "room.▁They▁": 6298,
      "cloth": 6299,
      "task": 6300,
      "felt▁better▁and▁": 6301,
      "out▁of▁his▁": 6302,
      "toys.▁": 6303,
      "What▁are▁you▁doing▁": 6304,
      "what▁I▁": 6305,
      "ribb": 6306,
      "relieved▁and▁": 6307,
      "have": 6308,
      "My▁name▁is▁": 6309,
      "hugged▁his▁": 6310,
      "lived▁in▁a▁big▁": 6311,
      "separ": 6312,
      "was▁so▁surpris": 6313,
      "says,▁": 6314,
      "was▁full▁of▁": 6315,
      "hon": 6316,
      "gor": 6317,
      "teacher": 6318,
      "ff▁": 6319,
      "blink": 6320,
      "peeked▁": 6321,
      "smok": 6322,
      "watching▁the▁": 6323,
      "lock▁": 6324,
      "disgust": 6325,
      "of▁them": 6326,
      "ready": 6327,
      "ran▁to▁her▁": 6328,
      "shapes": 6329,
      "bicy": 6330,
      "had▁lots▁of▁fun▁": 6331,
      ",\"▁Mia▁": 6332,
      "vide": 6333,
      "ugly▁": 6334,
      "bent▁": 6335,
      "looked▁for▁": 6336,
      "crab": 6337,
      "go▁home▁": 6338,
      "sign▁that▁": 6339,
      ".▁They▁were▁happy▁and▁": 6340,
      "repe": 6341,
      "remembered▁that▁": 6342,
      "on▁the▁door": 6343,
      "smiled▁back": 6344,
      "said,▁\"That's▁": 6345,
      "for▁a▁little▁": 6346,
      "big▁ho": 6347,
      ".\"\n\nTom▁and▁": 6348,
      ".▁He▁saw▁the▁": 6349,
      "Sally": 6350,
      "sorts▁of▁": 6351,
      "travel": 6352,
      "sink": 6353,
      "yawn": 6354,
      "nice.▁": 6355,
      "saw▁how▁": 6356,
      "swee": 6357,
      "games▁": 6358,
      "proud▁of▁their▁": 6359,
      "soon▁the▁": 6360,
      ".▁The▁little▁": 6361,
      "Tim,▁": 6362,
      "said,▁\"I'm▁sorry,▁": 6363,
      ",\"▁mom▁": 6364,
      "became▁best▁": 6365,
      "count▁": 6366,
      "Alice▁": 6367,
      "explore▁the▁world▁around▁": 6368,
      "looked▁and▁": 6369,
      "▁are": 6370,
      "design": 6371,
      "band-a": 6372,
      "in▁the▁garden▁": 6373,
      "spider": 6374,
      "lying▁": 6375,
      "wanted▁to▁play▁with▁the▁": 6376,
      "mod": 6377,
      "swimming▁": 6378,
      "lar▁": 6379,
      "grumpy▁": 6380,
      "trees▁": 6381,
      "Rose▁": 6382,
      "was▁scared▁": 6383,
      "muff": 6384,
      "so▁the▁": 6385,
      "came▁back▁": 6386,
      "other▁kids▁": 6387,
      "chased▁": 6388,
      "Lucy▁and▁": 6389,
      "fish▁and▁": 6390,
      "too.": 6391,
      "on▁the▁ground.▁She▁": 6392,
      "cco": 6393,
      "went▁out▁": 6394,
      "sail▁": 6395,
      "mistake": 6396,
      "cheered▁and▁": 6397,
      "unique▁": 6398,
      "s▁together": 6399,
      "chu": 6400,
      "for▁me": 6401,
      "▁Anna▁": 6402,
      "unlock": 6403,
      "nap▁": 6404,
      "slid▁": 6405,
      ".▁Just▁": 6406,
      "go▁back▁to▁": 6407,
      "we▁will▁": 6408,
      "on▁adventure": 6409,
      "came▁out": 6410,
      ".▁When▁the▁": 6411,
      "poo": 6412,
      "▁Once▁upon▁a▁time,▁there▁was▁a▁little▁girl▁named▁Lily.▁She▁loved▁": 6413,
      "trees,▁": 6414,
      "messa": 6415,
      "base": 6416,
      "gy": 6417,
      "quar": 6418,
      "deer▁": 6419,
      "said,▁\"I▁love▁": 6420,
      "sandwich": 6421,
      "▁air": 6422,
      "dangerous▁": 6423,
      "noticed▁the▁": 6424,
      "two": 6425,
      "weird▁": 6426,
      "said.\n\nLily▁": 6427,
      "Jes": 6428,
      "saved▁": 6429,
      ".\n\nLater▁that▁day,▁": 6430,
      "unusual▁": 6431,
      ".▁But▁they▁": 6432,
      "impati": 6433,
      "Why▁don't▁you▁": 6434,
      "be▁careful▁and▁": 6435,
      "than▁the▁": 6436,
      "smile▁on▁her▁face": 6437,
      "ggi": 6438,
      "but▁the▁": 6439,
      "Their▁mom▁": 6440,
      "s▁of▁the▁": 6441,
      "▁around▁her▁": 6442,
      ".▁Together,▁they▁": 6443,
      "noticed▁that▁the▁": 6444,
      "mix▁": 6445,
      "shows▁": 6446,
      "do▁it▁again": 6447,
      "bottle": 6448,
      "distur": 6449,
      "fill▁": 6450,
      "necklace▁": 6451,
      "flew▁away▁": 6452,
      "respect▁": 6453,
      "from▁that▁day▁": 6454,
      "e.▁\n\n": 6455,
      "ccoli": 6456,
      "shed": 6457,
      "must▁be▁": 6458,
      "you▁go": 6459,
      "Who": 6460,
      "storm": 6461,
      "chocolat": 6462,
      "anymore": 6463,
      "do▁not▁want▁to▁": 6464,
      "Pete▁": 6465,
      "shapes▁": 6466,
      "Kitty▁": 6467,
      "By": 6468,
      "let▁the▁": 6469,
      ".▁They▁are▁not▁": 6470,
      "▁adventure.": 6471,
      "it▁will▁": 6472,
      "ctor": 6473,
      "Lily's▁mom": 6474,
      "share▁their▁": 6475,
      "bird.▁The▁bird▁": 6476,
      "doing": 6477,
      "was▁three▁years▁old▁and▁": 6478,
      "looking▁at▁the▁": 6479,
      "she▁found▁a▁": 6480,
      "So▁they▁": 6481,
      "find▁a▁big▁": 6482,
      "forever.": 6483,
      "On▁": 6484,
      "hank": 6485,
      "told▁him▁to▁": 6486,
      "woke▁up": 6487,
      "succe": 6488,
      "has▁many▁": 6489,
      "▁Ben▁and▁Lily▁": 6490,
      "Spot.▁Spot▁": 6491,
      ".▁If▁you▁": 6492,
      "smelly▁": 6493,
      "ge▁to▁": 6494,
      "▁allow": 6495,
      ",\"▁Sara▁": 6496,
      "Grandpa▁": 6497,
      "store,▁": 6498,
      "?\"\n\nTom▁": 6499,
      "gira": 6500,
      "▁hope▁": 6501,
      "clap": 6502,
      "ostri": 6503,
      "push▁": 6504,
      "long▁and▁": 6505,
      "funn": 6506,
      "miss▁": 6507,
      "boat▁and▁": 6508,
      "was▁so▁excited.▁He▁": 6509,
      "off▁and▁": 6510,
      "button▁": 6511,
      "unt▁": 6512,
      "building": 6513,
      "regular▁": 6514,
      "knew▁he▁had▁": 6515,
      "man▁who▁": 6516,
      "white▁and▁": 6517,
      "sighed": 6518,
      "began▁": 6519,
      "ise▁": 6520,
      "by▁herself": 6521,
      "mummy▁": 6522,
      "vol": 6523,
      "helps▁": 6524,
      "glasse": 6525,
      "ing▁new▁": 6526,
      "lonely": 6527,
      ".\n\nAt▁": 6528,
      "he▁found▁a▁": 6529,
      "wall▁": 6530,
      "love▁and▁": 6531,
      "dirty▁and▁": 6532,
      "filth": 6533,
      "with▁his▁friends": 6534,
      "pictures▁and▁": 6535,
      "looked▁around▁the▁": 6536,
      "down▁the▁hill": 6537,
      "tunnel": 6538,
      "the▁best": 6539,
      "something▁that▁": 6540,
      "And": 6541,
      ".\n\n\"Can▁I▁": 6542,
      "new▁hom": 6543,
      "trust▁": 6544,
      ".▁How": 6545,
      "help▁him▁": 6546,
      "▁One▁day,▁a▁little▁girl▁named▁": 6547,
      "whistle": 6548,
      "bubble": 6549,
      "thank▁you▁": 6550,
      "desser": 6551,
      "eager▁to▁": 6552,
      ".\n\nHer▁mom▁": 6553,
      "Would▁you▁": 6554,
      "for▁a▁moment": 6555,
      "staur": 6556,
      "keep▁her▁": 6557,
      "for▁it": 6558,
      "forward": 6559,
      "Lily.▁\"": 6560,
      "clapped▁her▁": 6561,
      "it's▁not▁": 6562,
      "ing▁around▁the▁": 6563,
      "came▁over▁to▁play": 6564,
      "tent": 6565,
      "restaur": 6566,
      "leop": 6567,
      "money": 6568,
      ".▁The▁bunny▁": 6569,
      "ed!▁": 6570,
      "cheese▁": 6571,
      "note": 6572,
      "pack▁": 6573,
      ".▁He▁started▁to▁": 6574,
      "bridge": 6575,
      "Yes,▁I▁": 6576,
      "breakfast": 6577,
      "went▁home▁and▁": 6578,
      "black▁and▁": 6579,
      "check▁": 6580,
      "Rex▁": 6581,
      "visit▁the▁": 6582,
      "what's▁": 6583,
      "Joe▁was▁": 6584,
      "it▁up▁": 6585,
      "stubborn": 6586,
      "bowl▁": 6587,
      "waff": 6588,
      "was▁filled▁with▁": 6589,
      "time.▁": 6590,
      "whistle▁": 6591,
      "quiet▁and▁": 6592,
      "sweethe": 6593,
      "broccoli": 6594,
      "Fred▁": 6595,
      "to▁be▁a▁": 6596,
      "rocks▁and▁": 6597,
      "popp": 6598,
      ".▁He▁asked▁his▁": 6599,
      "ligat": 6600,
      "lesson.▁They▁": 6601,
      "hairy▁": 6602,
      "tried▁and▁": 6603,
      "toys,▁but▁": 6604,
      "heli": 6605,
      "yellow▁and▁": 6606,
      "saw▁him": 6607,
      "enthusiast": 6608,
      "with▁their▁mom": 6609,
      "ask▁": 6610,
      "looked▁at▁her▁": 6611,
      "sum": 6612,
      "grab▁the▁": 6613,
      "them▁the▁": 6614,
      "sla": 6615,
      "dog▁named▁Max.▁Max▁": 6616,
      "bowl▁of▁": 6617,
      "jud": 6618,
      "Did▁": 6619,
      "to▁make▁it▁": 6620,
      "sack▁": 6621,
      "fence▁and▁": 6622,
      "generous▁": 6623,
      "whale▁": 6624,
      "Sam's▁": 6625,
      "waved▁goodbye▁to▁the▁": 6626,
      "yelled": 6627,
      "toys▁and▁book": 6628,
      "lived▁in▁a▁small▁": 6629,
      "higher": 6630,
      "inn": 6631,
      "jolly▁": 6632,
      "learned▁that▁it's▁important▁to▁": 6633,
      "Sun": 6634,
      ",▁but▁her▁mom▁": 6635,
      "dirty": 6636,
      "Dave▁": 6637,
      "down▁the▁street": 6638,
      "helicop": 6639,
      "toys.▁He▁": 6640,
      "fter▁a▁while,▁the▁": 6641,
      ".\n\nAfter▁a▁while,▁": 6642,
      "neighbor▁": 6643,
      "hide▁and▁seek": 6644,
      "making▁the▁": 6645,
      "original▁": 6646,
      "chor": 6647,
      "parents": 6648,
      "bed.▁She▁": 6649,
      "was▁over": 6650,
      "his▁friend": 6651,
      "like▁to▁play▁with▁their▁": 6652,
      "fierce▁": 6653,
      "er▁and▁the▁": 6654,
      "wanted▁to▁help▁the▁": 6655,
      ".▁You▁are▁a▁": 6656,
      "sat▁on▁the▁": 6657,
      "games▁and▁": 6658,
      "zz▁": 6659,
      "drank▁": 6660,
      "angar": 6661,
      "cket▁": 6662,
      "turtle▁": 6663,
      "tidy▁": 6664,
      "ek▁": 6665,
      "did▁not▁like▁the▁": 6666,
      "played▁and▁": 6667,
      "went▁for▁a▁walk": 6668,
      "like▁that": 6669,
      "card▁": 6670,
      "your▁friend": 6671,
      "little▁boy▁called▁": 6672,
      "that▁he▁was▁": 6673,
      "▁along▁the▁": 6674,
      "garage": 6675,
      "Lily.▁Lily▁": 6676,
      "looks▁at▁the▁": 6677,
      "kitten": 6678,
      "weak": 6679,
      "exciting": 6680,
      ".\n\n\"I'm▁sorry,▁": 6681,
      "did▁not": 6682,
      "four▁": 6683,
      "you▁and▁": 6684,
      "looking▁for▁something▁": 6685,
      ".▁From▁that▁day▁on,▁the▁": 6686,
      "were▁playing▁with▁their▁": 6687,
      ".▁They▁are▁happy.": 6688,
      "sandwiche": 6689,
      ".▁So▁she▁": 6690,
      "boot": 6691,
      "erop": 6692,
      "eroplan": 6693,
      "ran▁off▁": 6694,
      "Bob▁and▁": 6695,
      "picking▁": 6696,
      "viol": 6697,
      "grabbed▁her▁": 6698,
      "singing": 6699,
      "thick▁": 6700,
      "box.▁They▁": 6701,
      "Lola▁": 6702,
      "lak": 6703,
      "tell▁her▁": 6704,
      "phone▁": 6705,
      ".\"\n\nSam▁": 6706,
      "loved▁to▁eat▁": 6707,
      "told▁her▁to▁": 6708,
      "ort▁": 6709,
      "Lily▁and▁her▁mom▁": 6710,
      "by▁a▁": 6711,
      "empty▁": 6712,
      "an▁important▁": 6713,
      "was▁right": 6714,
      ".\n\nM": 6715,
      "roof": 6716,
      "pink▁and▁": 6717,
      "ed▁up▁the▁": 6718,
      "▁adv": 6719,
      "to▁help▁him": 6720,
      "back▁to▁her▁": 6721,
      "Mum▁and▁": 6722,
      "nosy▁": 6723,
      "kangar": 6724,
      "suddenly,▁": 6725,
      "!\"\n\nBen▁": 6726,
      "ei": 6727,
      "into▁his▁": 6728,
      "may▁": 6729,
      "s▁were▁very▁": 6730,
      ".▁\n\nTimmy▁": 6731,
      "ed▁around▁the▁": 6732,
      "gn": 6733,
      "okay▁": 6734,
      "his▁friends": 6735,
      "smile▁on▁his▁face": 6736,
      "▁Once▁upon▁a▁time,▁there▁was▁a▁little▁girl▁": 6737,
      "falls▁": 6738,
      "far▁": 6739,
      "How▁": 6740,
      "replied": 6741,
      "tightly": 6742,
      "come▁tru": 6743,
      "says,▁\"No,▁": 6744,
      "scared▁to▁": 6745,
      "gave▁him▁": 6746,
      "pointed▁to▁": 6747,
      "what▁are▁you▁doing": 6748,
      "careful▁not▁to▁": 6749,
      "Bobo▁": 6750,
      "gave▁her▁a▁big▁hug": 6751,
      ".▁\n\nAs▁": 6752,
      "in▁the▁yard": 6753,
      "close▁to▁": 6754,
      "leaf▁": 6755,
      ".▁Sometimes▁they▁": 6756,
      "proud▁of▁herself": 6757,
      "most": 6758,
      "life▁": 6759,
      "fore▁": 6760,
      "wrong▁": 6761,
      "ordinary▁": 6762,
      "nice,▁": 6763,
      "big▁house▁": 6764,
      ".▁It▁will▁": 6765,
      "▁add▁": 6766,
      "snake": 6767,
      "over▁a▁": 6768,
      "oper": 6769,
      "where▁they▁": 6770,
      "nose▁and▁": 6771,
      "home.▁": 6772,
      "learned▁their▁": 6773,
      "lesson▁and▁": 6774,
      "ing▁to▁the▁": 6775,
      "laun": 6776,
      "practice▁": 6777,
      "nobody▁": 6778,
      "said▁he▁was▁": 6779,
      ".▁No▁": 6780,
      "friends.▁They▁like▁to▁play▁with▁": 6781,
      "stories▁": 6782,
      "red▁ball": 6783,
      "them▁all": 6784,
      "perform": 6785,
      "was▁so▁proud▁of▁her": 6786,
      "for▁a▁walk▁": 6787,
      "George▁": 6788,
      "grap": 6789,
      "impro": 6790,
      "ate▁and▁": 6791,
      "different▁colors▁and▁": 6792,
      "lead▁": 6793,
      "bench▁and▁": 6794,
      "could▁have▁": 6795,
      "team": 6796,
      "twe": 6797,
      ".▁She▁also▁": 6798,
      "wast": 6799,
      "nodded.▁He▁": 6800,
      "shouted.▁\"": 6801,
      "was▁so▁excited▁that▁she▁": 6802,
      "hook": 6803,
      "proud▁of▁his▁": 6804,
      "Nex": 6805,
      "finished,▁": 6806,
      "If▁you▁": 6807,
      "a▁little▁": 6808,
      "worked▁together▁to▁": 6809,
      "Be▁careful": 6810,
      "ran▁hom": 6811,
      "ying▁": 6812,
      "?\"▁Her▁mom▁": 6813,
      "was▁so▁happy,▁": 6814,
      "net▁": 6815,
      "yogur": 6816,
      "quite▁": 6817,
      "What's▁wrong": 6818,
      "of▁her": 6819,
      "bounce▁": 6820,
      "obser": 6821,
      "spon": 6822,
      "Fre": 6823,
      "Qu": 6824,
      "measure▁": 6825,
      "gold▁": 6826,
      "long,▁": 6827,
      "brought▁it▁": 6828,
      "fluffy▁": 6829,
      "felt▁much▁better": 6830,
      "▁Anna▁and▁Ben▁": 6831,
      "Benny": 6832,
      "blanket▁and▁": 6833,
      ".▁She▁thought▁": 6834,
      "coming": 6835,
      "ud": 6836,
      "thin▁": 6837,
      "It▁looks▁": 6838,
      "they▁could▁not▁": 6839,
      "shop▁": 6840,
      "it▁wasn't▁": 6841,
      "unknown▁": 6842,
      "What▁a▁": 6843,
      "modern▁": 6844,
      "could▁be▁": 6845,
      "island": 6846,
      "arrived,▁": 6847,
      "sh▁and▁": 6848,
      "pizza": 6849,
      "found▁something▁": 6850,
      ".\"▁Tim▁": 6851,
      "inside.▁": 6852,
      ".▁You▁are▁my▁": 6853,
      "hese▁": 6854,
      "reco": 6855,
      "working▁": 6856,
      ".\"▁Mom▁": 6857,
      "Of▁course": 6858,
      ".▁They▁are▁happy": 6859,
      "is▁not▁a▁": 6860,
      "made▁a▁new▁friend": 6861,
      "hat▁and▁a▁": 6862,
      "space": 6863,
      "after": 6864,
      "wealthy▁": 6865,
      "her.▁He▁": 6866,
      "could▁see▁": 6867,
      "near▁a▁": 6868,
      "clown▁": 6869,
      "took▁a▁deep▁breath▁and▁": 6870,
      "!▁It▁was▁": 6871,
      "share▁her▁": 6872,
      "tomato": 6873,
      "we▁need▁to▁": 6874,
      "as▁he▁": 6875,
      "Sam▁were▁": 6876,
      "came▁over▁and▁": 6877,
      "of▁this▁": 6878,
      "set▁off▁": 6879,
      "ones▁": 6880,
      "singing▁": 6881,
      "them▁to▁the▁": 6882,
      "?\"\n\nHer▁mom▁": 6883,
      "words▁and▁": 6884,
      "marri": 6885,
      "would▁not▁": 6886,
      "clean▁up": 6887,
      "put▁their▁": 6888,
      "for▁lunch": 6889,
      "of▁a▁sudden": 6890,
      ".▁The▁water▁": 6891,
      "to▁ask": 6892,
      "little▁boy▁named▁Tim▁": 6893,
      "inside.▁They▁": 6894,
      "hose▁": 6895,
      "sweetie": 6896,
      "cted▁": 6897,
      "ian": 6898,
      "phone": 6899,
      "beep": 6900,
      "atel": 6901,
      "s▁at▁": 6902,
      "eager": 6903,
      "ts▁of": 6904,
      "Jack's▁": 6905,
      "guard▁": 6906,
      "you▁too,▁": 6907,
      "new▁toy▁": 6908,
      "other▁animals▁": 6909,
      "sin": 6910,
      "pick▁up▁the▁": 6911,
      "queen▁": 6912,
      "waves▁": 6913,
      "color▁": 6914,
      "off▁her▁": 6915,
      ",▁then▁": 6916,
      "Bet": 6917,
      ".▁To▁": 6918,
      "found▁it": 6919,
      "jogg": 6920,
      "paid▁": 6921,
      "Benny.▁": 6922,
      "year-": 6923,
      "apple▁": 6924,
      "joy▁": 6925,
      "provid": 6926,
      "thanked▁him▁": 6927,
      "Bobb": 6928,
      "out▁from▁": 6929,
      "cact": 6930,
      "Lu": 6931,
      "how▁it▁": 6932,
      "knight▁": 6933,
      "▁Once▁upon▁a▁time,▁there▁was▁a▁little▁boy▁named▁Tim.▁Tim▁": 6934,
      "wise▁old▁": 6935,
      "Lily▁saw▁a▁": 6936,
      "emo▁": 6937,
      "sing▁and▁": 6938,
      "closed▁the▁": 6939,
      "come▁back▁and▁": 6940,
      "crawl": 6941,
      "ran▁as▁fast": 6942,
      "wonder▁": 6943,
      "that▁his▁": 6944,
      "I▁want▁": 6945,
      "balance▁": 6946,
      "things.": 6947,
      "seat▁": 6948,
      "ers": 6949,
      "birdie▁": 6950,
      "had▁never▁seen": 6951,
      "they▁also▁": 6952,
      ".▁Tom▁and▁Lily▁": 6953,
      "ran▁back▁to▁the▁": 6954,
      "napk": 6955,
      ".▁She▁was▁three▁years▁old▁and▁": 6956,
      "lightn": 6957,
      "tap": 6958,
      "Will▁": 6959,
      "so▁it▁": 6960,
      "▁Once▁upon▁a▁time,▁there▁was▁a▁small▁": 6961,
      "laughed▁a": 6962,
      "meal": 6963,
      "recogn": 6964,
      "heal": 6965,
      "chicken▁": 6966,
      ".▁It▁has▁a▁": 6967,
      "▁asked": 6968,
      "hurri": 6969,
      "wondered▁what▁": 6970,
      ".\n\nFrom▁that▁day▁on,▁": 6971,
      "didnâ€™t▁": 6972,
      "tion▁": 6973,
      "joined▁": 6974,
      "scare▁": 6975,
      "-up": 6976,
      "Whisk": 6977,
      "▁Once▁upon▁a▁time,▁there▁was▁a▁big,▁": 6978,
      "had▁no▁": 6979,
      "!▁A": 6980,
      "d,▁": 6981,
      ".▁He▁kept▁": 6982,
      "stars▁": 6983,
      "walked▁and▁": 6984,
      ".▁Thank▁you,▁": 6985,
      "muse": 6986,
      "was▁so▁excited▁that▁he▁": 6987,
      "clouds▁": 6988,
      "in▁circle": 6989,
      "when▁we▁": 6990,
      "how▁the▁": 6991,
      "e.\n\nThe▁": 6992,
      "colorful": 6993,
      "dog.▁He▁": 6994,
      "goal": 6995,
      "delicate▁": 6996,
      "lost▁his▁": 6997,
      "kept▁the▁": 6998,
      "grabbed▁his▁": 6999,
      "didn't▁want▁": 7000,
      "escap": 7001,
      ".▁She▁hugged▁": 7002,
      "too▁much": 7003,
      "sat▁down▁and▁": 7004,
      "boy▁called▁": 7005,
      "trem": 7006,
      "Mike▁": 7007,
      "for▁your▁": 7008,
      "▁hard": 7009,
      "hipp": 7010,
      "His▁dad▁": 7011,
      "shapes▁and▁": 7012,
      "half": 7013,
      "laz": 7014,
      "sour▁": 7015,
      "were▁best▁friends.▁They▁": 7016,
      "sad▁because▁": 7017,
      "very▁happy": 7018,
      "One▁day": 7019,
      "ve.▁": 7020,
      "bean": 7021,
      "to▁a▁big▁": 7022,
      ".▁The▁rabbit▁": 7023,
      "beautiful▁and▁": 7024,
      "threw": 7025,
      "Mama▁and▁": 7026,
      "vel▁": 7027,
      "moral▁of▁the▁story▁is▁": 7028,
      "polish": 7029,
      "fair▁": 7030,
      "knew▁he▁had▁to▁": 7031,
      "Wa": 7032,
      "they▁went▁to▁the▁": 7033,
      "found▁an▁": 7034,
      "▁add": 7035,
      "chal": 7036,
      "anything": 7037,
      "wanted▁to▁play▁with▁": 7038,
      "milk▁": 7039,
      "▁alone▁": 7040,
      "mum▁and▁": 7041,
      "sparkled▁": 7042,
      "meow": 7043,
      "pala": 7044,
      "flour": 7045,
      "plate▁": 7046,
      "volcan": 7047,
      "▁Sara▁": 7048,
      "excited.▁They▁": 7049,
      "something▁bad▁": 7050,
      "twig": 7051,
      "saying▁": 7052,
      ".\n\n\"Hi,▁": 7053,
      "splash▁": 7054,
      "umbrella": 7055,
      "gave▁him▁a▁big▁hug": 7056,
      "case▁": 7057,
      "step▁": 7058,
      "say▁hello": 7059,
      "string": 7060,
      "buzz": 7061,
      "voca": 7062,
      "metal▁": 7063,
      "and▁the▁": 7064,
      "went▁to▁the▁park▁with▁her▁": 7065,
      "looked▁out▁the▁": 7066,
      "sea▁": 7067,
      "enjoying▁the▁": 7068,
      "said,▁\"Hello,▁": 7069,
      "line▁": 7070,
      "walked,▁": 7071,
      "clothes▁": 7072,
      "beak": 7073,
      "!▁S": 7074,
      "skin": 7075,
      "clown": 7076,
      "fter▁a▁few▁minutes,▁": 7077,
      "reliable▁": 7078,
      "other▁kid": 7079,
      "carefully▁and▁": 7080,
      "say▁sorry▁to▁": 7081,
      "Anna▁and▁Ben": 7082,
      "I▁know": 7083,
      "sit▁on▁the▁": 7084,
      "to▁be▁careful": 7085,
      "dove▁": 7086,
      "Hen": 7087,
      "she▁couldn't▁": 7088,
      "chubby▁": 7089,
      "ssi": 7090,
      "recogniz": 7091,
      "gentle▁and▁": 7092,
      "knock": 7093,
      "sweeti": 7094,
      "y,▁but▁he▁": 7095,
      ",▁but▁be▁careful": 7096,
      "special▁and▁": 7097,
      "reward": 7098,
      "thing▁to▁do": 7099,
      "behind": 7100,
      "cried": 7101,
      "outside.▁": 7102,
      "microph": 7103,
      "ting▁": 7104,
      "show▁you": 7105,
      ".\n\n\"Help": 7106,
      "arry▁": 7107,
      ".▁Soon▁": 7108,
      "said.\n\nThe▁": 7109,
      "taken▁": 7110,
      "offe": 7111,
      "their▁mom▁and▁": 7112,
      "tiger▁": 7113,
      "promised▁to▁be▁": 7114,
      "village": 7115,
      "through▁": 7116,
      "y.▁And▁": 7117,
      ".▁They▁have▁fun": 7118,
      "that▁could▁": 7119,
      "worked▁hard▁": 7120,
      "waited▁for▁the▁": 7121,
      "rop": 7122,
      "realized▁that▁the▁": 7123,
      "pizza▁": 7124,
      "looked▁like▁a▁": 7125,
      ".▁The▁mouse▁": 7126,
      "Car": 7127,
      "boring": 7128,
      "ino": 7129,
      "bunn": 7130,
      "birds": 7131,
      "to▁all▁": 7132,
      "reinde": 7133,
      "Her▁dad▁": 7134,
      "flowers,▁": 7135,
      "at▁and▁": 7136,
      "shared▁": 7137,
      "room.▁He▁": 7138,
      ".▁Inside▁": 7139,
      "reached▁for▁the▁": 7140,
      "mail▁": 7141,
      "said,▁\"Yes": 7142,
      "▁apple▁": 7143,
      "things.▁One▁day,▁": 7144,
      "picked▁up▁": 7145,
      "ing▁at▁the▁": 7146,
      "dad's▁": 7147,
      ",\"▁Ben▁said.▁\"": 7148,
      "We're▁": 7149,
      "was▁a▁good▁": 7150,
      "Ella▁": 7151,
      "belong▁to▁": 7152,
      "experi": 7153,
      "This▁is▁a▁": 7154,
      "will▁always▁": 7155,
      "lazy▁": 7156,
      "!\"\n\nTom▁": 7157,
      "to▁take▁": 7158,
      "robot": 7159,
      "me▁to▁": 7160,
      "I▁like▁": 7161,
      "Lily▁and▁her▁": 7162,
      "!â€": 7163,
      "excited.▁She▁": 7164,
      "shiel": 7165,
      "troph": 7166,
      "were▁twins▁who▁liked▁to▁play▁": 7167,
      ".▁You▁should▁": 7168,
      "Ale": 7169,
      "find▁his▁": 7170,
      "gum": 7171,
      "sie▁": 7172,
      ".▁\n\nFinally,▁": 7173,
      "men": 7174,
      "came▁out▁of▁the▁": 7175,
      ",▁please": 7176,
      "seem▁": 7177,
      "in▁the▁snow": 7178,
      "woman": 7179,
      "showed▁him": 7180,
      ".▁Then,▁he▁": 7181,
      "with▁her▁famil": 7182,
      "words▁": 7183,
      "asked▁her▁mom▁if▁she▁could▁": 7184,
      "she▁heard▁a▁": 7185,
      "?\"\n\nMom▁": 7186,
      "you▁can't▁": 7187,
      "loo": 7188,
      "lesson▁that▁day": 7189,
      "pick▁it▁up": 7190,
      "pray": 7191,
      "well▁": 7192,
      "lip": 7193,
      "puzzle▁": 7194,
      "ing▁about▁": 7195,
      "painted▁": 7196,
      "almost▁": 7197,
      "to▁the▁park▁": 7198,
      "forgive▁you": 7199,
      "motorcy": 7200,
      "present▁": 7201,
      "forgot▁": 7202,
      "sticks▁and▁": 7203,
      "make▁noise": 7204,
      "ted▁the▁": 7205,
      ".▁It▁was▁an▁": 7206,
      "wanted▁to▁eat▁": 7207,
      "▁asked▁him▁": 7208,
      "jumped▁up▁and▁": 7209,
      "thought▁and▁": 7210,
      ".▁She▁sees▁": 7211,
      ".▁Lily▁was▁": 7212,
      "ision": 7213,
      "zoo▁": 7214,
      "by▁himself": 7215,
      ".▁Benny▁": 7216,
      "mad▁at▁": 7217,
      "who▁had▁a▁": 7218,
      "rub": 7219,
      ".▁She▁started▁to▁": 7220,
      "little": 7221,
      "was▁so▁excited!▁He▁": 7222,
      "one▁more▁": 7223,
      "people▁in▁the▁": 7224,
      "rude▁": 7225,
      "happened.▁The▁": 7226,
      "sprink": 7227,
      "each▁other.": 7228,
      "couldn't▁find▁it": 7229,
      "cookie▁": 7230,
      "on▁your▁": 7231,
      "jumping▁": 7232,
      "Maggi": 7233,
      "vail": 7234,
      "seek▁": 7235,
      "ch▁of▁": 7236,
      "Benny.▁Benny▁": 7237,
      "was▁really▁": 7238,
      "nit": 7239,
      "Pau": 7240,
      "alone": 7241,
      "was▁so▁excited!▁She▁": 7242,
      "Ann▁": 7243,
      "rope": 7244,
      "respon": 7245,
      "skipp": 7246,
      "friend.": 7247,
      "swan▁": 7248,
      "barked▁and▁": 7249,
      "lay▁down▁": 7250,
      "it▁was▁time▁to▁go▁home,▁": 7251,
      "Ellie▁": 7252,
      "nods▁and▁": 7253,
      "smiles▁and▁says,▁\"": 7254,
      "showing▁": 7255,
      "in▁the▁big▁": 7256,
      "to▁his▁mom": 7257,
      "sausa": 7258,
      "terrible▁": 7259,
      "saw▁that▁it▁was▁": 7260,
      "St": 7261,
      "ip": 7262,
      "rever": 7263,
      "super": 7264,
      "I▁think▁": 7265,
      "got▁scared▁and▁": 7266,
      "to▁play▁with▁his▁": 7267,
      "lonely▁": 7268,
      "was▁big▁and▁": 7269,
      "care▁of▁": 7270,
      "home.": 7271,
      "this▁time▁": 7272,
      ".▁They▁have▁a▁": 7273,
      "bod": 7274,
      ".▁She▁loved▁": 7275,
      ".▁There▁was▁a▁": 7276,
      "in▁the▁living▁room": 7277,
      "rush": 7278,
      "dreaming▁": 7279,
      "back▁and▁forth": 7280,
      ".▁\n\nOne▁day,▁the▁": 7281,
      "Hello": 7282,
      "in▁the▁park▁and▁": 7283,
      "looked▁like▁": 7284,
      "before.▁He▁": 7285,
      "cool▁and▁": 7286,
      "back▁home,▁": 7287,
      "ran▁over▁to▁": 7288,
      "hair▁and▁": 7289,
      "heard▁a▁loud▁noise▁": 7290,
      "oy": 7291,
      "coffe": 7292,
      ".▁She▁asked▁": 7293,
      "he▁had▁been▁": 7294,
      "!\"▁Timmy▁": 7295,
      "holding▁a▁": 7296,
      "camp": 7297,
      "Mom▁and▁dad▁": 7298,
      "found▁out▁": 7299,
      "▁Once,▁": 7300,
      "uli": 7301,
      "From▁then▁on,▁the▁": 7302,
      ".▁Lily▁and▁Ben▁": 7303,
      "▁anymore.▁He▁": 7304,
      "books▁": 7305,
      "smooth▁": 7306,
      "loved▁to▁play▁with▁her▁": 7307,
      "on▁top": 7308,
      "saw▁a▁beautiful▁": 7309,
      "yach": 7310,
      ".▁It▁was▁big▁and▁": 7311,
      "elevat": 7312,
      "potato": 7313,
      "Why▁did▁you▁": 7314,
      "gem": 7315,
      "move▁the▁": 7316,
      "fruit▁": 7317,
      "ery▁": 7318,
      "ract": 7319,
      "moral▁of▁the▁story▁is": 7320,
      "borrow▁": 7321,
      "What▁is▁that": 7322,
      "tight▁": 7323,
      "es▁a▁big▁": 7324,
      "▁Once▁upon▁a▁time,▁there▁was▁a▁little▁girl▁named▁Lily.▁She▁loved▁to▁play▁with▁her▁toys▁and▁": 7325,
      "Joe": 7326,
      "lot▁": 7327,
      "ducks▁": 7328,
      "bike▁and▁": 7329,
      "giggled▁and▁": 7330,
      "inse": 7331,
      ".▁The▁car▁": 7332,
      "climbed▁the▁": 7333,
      "had▁an▁idea.▁He▁": 7334,
      "next": 7335,
      "ence": 7336,
      "scold": 7337,
      "prun": 7338,
      ".▁They▁would▁": 7339,
      "ing▁was▁": 7340,
      "ed▁a▁big▁": 7341,
      "people▁who▁": 7342,
      "shy▁": 7343,
      "!▁Can▁I▁": 7344,
      "lucky▁to▁": 7345,
      "in▁the▁box": 7346,
      "playing▁together": 7347,
      "e,▁but▁she▁": 7348,
      "it▁was▁time▁for▁": 7349,
      "sweetheart": 7350,
      "they▁finished▁": 7351,
      "tail▁": 7352,
      "inc": 7353,
      "in▁the▁forest▁": 7354,
      "vend": 7355,
      "share▁and▁be▁": 7356,
      "shook▁her▁head": 7357,
      "felt▁happy": 7358,
      "far▁away▁": 7359,
      "stranger": 7360,
      "goat▁": 7361,
      "proudly▁": 7362,
      "sailed▁": 7363,
      ".▁They▁had▁a▁": 7364,
      "clean▁up▁": 7365,
      "cave▁": 7366,
      "port": 7367,
      "tough▁": 7368,
      "truth": 7369,
      "sometimes": 7370,
      "fold▁": 7371,
      "eg": 7372,
      "â€“": 7373,
      "hugged▁each▁other▁and▁": 7374,
      "lift▁": 7375,
      "echan": 7376,
      "journ": 7377,
      "inclu": 7378,
      "he▁is▁": 7379,
      "out▁of▁her▁": 7380,
      "donâ€™t▁": 7381,
      "took▁turns▁": 7382,
      "Do": 7383,
      ".▁The▁truck▁": 7384,
      "farmer": 7385,
      "Where▁are▁": 7386,
      "but▁also▁": 7387,
      "spray▁": 7388,
      "Thank": 7389,
      "little▁brother▁": 7390,
      "either": 7391,
      "earth": 7392,
      "Lily's▁friend▁": 7393,
      "pretend▁they▁were▁": 7394,
      "listened▁": 7395,
      "wanted▁to▁help▁": 7396,
      "Bella▁": 7397,
      "toa": 7398,
      "there▁is▁a▁": 7399,
      "cross▁": 7400,
      "bucket▁and▁": 7401,
      "shion": 7402,
      "I'm▁sorry": 7403,
      "!\"▁Max▁": 7404,
      "!\n\nHe▁": 7405,
      "felt▁something▁": 7406,
      "her▁mum▁": 7407,
      "listened▁to▁the▁": 7408,
      "rod": 7409,
      "yours": 7410,
      ".▁They▁have▁": 7411,
      "mechan": 7412,
      "rocket▁": 7413,
      "new▁and▁": 7414,
      "pulled▁and▁": 7415,
      "biggest▁": 7416,
      "Sara▁and▁Tom▁": 7417,
      "nodded▁": 7418,
      ".▁\n\nThe▁next▁day,▁": 7419,
      ".\n\nLily▁and▁Ben▁": 7420,
      ".▁\n\nThe▁girl▁": 7421,
      "lamp": 7422,
      "▁attract": 7423,
      "wrap": 7424,
      "Budd": 7425,
      "scared▁of▁": 7426,
      "do▁you▁want▁to▁": 7427,
      "was▁so▁happy▁to▁see▁": 7428,
      "kept▁on▁": 7429,
      "Mommy▁and▁Daddy▁": 7430,
      "made▁a▁loud▁": 7431,
      "fram": 7432,
      "neighbour": 7433,
      "nervous": 7434,
      "starts▁to▁": 7435,
      "complain": 7436,
      "saw▁him▁": 7437,
      "looking▁for▁a▁": 7438,
      "closel": 7439,
      "mal▁": 7440,
      "they▁always▁": 7441,
      "money▁to▁": 7442,
      "in▁her▁room": 7443,
      "e.\n\n\"": 7444,
      "nodded": 7445,
      "home.▁He▁": 7446,
      "chur": 7447,
      "he▁was▁too▁": 7448,
      "Hi▁": 7449,
      "Sara,▁": 7450,
      "fisher": 7451,
      "magaz": 7452,
      "in▁the▁sand": 7453,
      "You▁are▁a▁": 7454,
      "send▁": 7455,
      "puddle▁": 7456,
      ".\"\n\nTimmy▁": 7457,
      "wanted▁to▁see▁": 7458,
      "Did▁you▁": 7459,
      ".\n\nMommy▁": 7460,
      "Mrs.▁": 7461,
      "with▁a▁smil": 7462,
      "Even▁": 7463,
      "noisy▁": 7464,
      "what▁had▁": 7465,
      "outside.▁They▁": 7466,
      "witch▁": 7467,
      ".▁She▁told▁": 7468,
      ".▁They▁were▁both▁": 7469,
      "clear▁": 7470,
      "to▁their▁": 7471,
      "smiled▁and▁said▁\"": 7472,
      "up▁with▁": 7473,
      "help▁and▁": 7474,
      "record▁": 7475,
      "Insid": 7476,
      "complet": 7477,
      "took▁out▁a▁": 7478,
      "means▁": 7479,
      "dog's▁": 7480,
      "pattern": 7481,
      "disagre": 7482,
      ".â€\n\nThe▁": 7483,
      "ing▁at▁": 7484,
      "block▁": 7485,
      "let▁go▁": 7486,
      "bottom▁": 7487,
      "what▁a▁": 7488,
      "Susie▁": 7489,
      "normal▁": 7490,
      "you▁have▁": 7491,
      ",▁and▁soon▁": 7492,
      "micro": 7493,
      "back▁home▁": 7494,
      "her,▁\"": 7495,
      "was▁so▁glad▁": 7496,
      "looking▁at▁": 7497,
      "temp": 7498,
      "cob": 7499,
      "dinosaur▁": 7500,
      "explore.▁One▁day,▁": 7501,
      "the▁sun▁": 7502,
      "furnit": 7503,
      "use▁it▁to▁": 7504,
      "sent▁": 7505,
      "steal": 7506,
      ".▁It▁looks▁": 7507,
      "?\"▁Mom▁": 7508,
      "brush▁": 7509,
      "▁ador": 7510,
      ".▁\n\nJohn▁": 7511,
      "hang▁": 7512,
      "marble": 7513,
      "leave": 7514,
      "backpack": 7515,
      "\".\n\n": 7516,
      "!â€\n\nThe▁": 7517,
      "excited.▁He▁": 7518,
      ".▁Timmy": 7519,
      "wanted▁to▁make▁": 7520,
      "We▁are▁sorry,▁": 7521,
      "can▁hurt▁": 7522,
      "next▁time": 7523,
      "ball.▁He▁": 7524,
      "smiled▁and▁said▁": 7525,
      "things▁that▁are▁": 7526,
      "he'd▁": 7527,
      "inside.\n\n": 7528,
      "Mandy▁": 7529,
      "▁hid": 7530,
      "puts▁it▁": 7531,
      "searching▁": 7532,
      ",▁but▁they▁were▁": 7533,
      "jam": 7534,
      "where▁it▁": 7535,
      "od▁": 7536,
      "for▁help▁": 7537,
      "want▁a▁": 7538,
      "sang▁a▁": 7539,
      "has▁a▁big▁": 7540,
      ".\n\n\"Maybe▁": 7541,
      "Eventually,▁": 7542,
      "was▁very▁excited▁": 7543,
      "grandpa": 7544,
      "so▁bad": 7545,
      "barber▁": 7546,
      "possi": 7547,
      ".▁They▁learned▁that▁": 7548,
      "in▁the▁distance": 7549,
      "curious.▁She▁": 7550,
      "sticker": 7551,
      "bottle▁of▁": 7552,
      "shakes▁": 7553,
      "sat": 7554,
      ".▁So▁the▁": 7555,
      "tut": 7556,
      "?\"▁Mom": 7557,
      "curious.▁He▁": 7558,
      "was▁so▁happy!▁He▁": 7559,
      "it▁started▁to▁rain": 7560,
      "factor": 7561,
      "lost▁her▁": 7562,
      "s▁with▁the▁": 7563,
      "sku": 7564,
      "elet": 7565,
      "street▁": 7566,
      ".\n\nAt▁the▁end▁of▁the▁day,▁": 7567,
      "worried▁": 7568,
      "lots▁of": 7569,
      "them.": 7570,
      "building▁": 7571,
      "part▁of▁the▁": 7572,
      "more▁and▁more▁": 7573,
      "dependable▁": 7574,
      "honest": 7575,
      "run▁and▁jump▁and▁": 7576,
      "dais": 7577,
      "betwe": 7578,
      ".▁One▁day,▁Timmy▁": 7579,
      ".▁Su": 7580,
      "twins.▁They▁like▁to▁play▁": 7581,
      "were▁the▁best▁of▁": 7582,
      "stuck▁in▁the▁": 7583,
      "broke▁into▁": 7584,
      "▁all▁of▁the▁": 7585,
      "rhino": 7586,
      "stumbled▁": 7587,
      "when▁he▁was▁": 7588,
      "to▁help▁her": 7589,
      "so▁he▁could▁": 7590,
      "pping▁": 7591,
      "knows▁": 7592,
      "he▁was▁very▁": 7593,
      "Blue▁": 7594,
      "into▁the▁water": 7595,
      "yes": 7596,
      "▁anymore.▁They▁": 7597,
      "creative▁": 7598,
      "smiles.▁He▁": 7599,
      "dom": 7600,
      "learned▁an▁important▁": 7601,
      ".▁They▁think▁": 7602,
      "goose▁": 7603,
      "thi": 7604,
      "somewhere▁": 7605,
      "he▁had▁an▁idea": 7606,
      "each▁other's▁": 7607,
      ",▁it's▁": 7608,
      "forgave▁": 7609,
      "Spot▁and▁": 7610,
      "sym": 7611,
      "swun": 7612,
      "from▁then▁": 7613,
      "thought▁for▁a▁moment▁and▁then▁": 7614,
      "cries": 7615,
      "butterfly▁and▁": 7616,
      "she▁was": 7617,
      "woke▁up▁and▁": 7618,
      "mal": 7619,
      "down▁to▁the▁": 7620,
      "so▁pretty": 7621,
      "was▁so▁happy.▁He▁": 7622,
      "used▁her▁": 7623,
      "safe.▁": 7624,
      "successful": 7625,
      "borrow": 7626,
      ".▁What▁": 7627,
      "board▁and▁": 7628,
      "missed▁": 7629,
      "caught▁the▁": 7630,
      "theat": 7631,
      "map": 7632,
      "?\"▁Anna": 7633,
      ".\n\nIn▁the▁": 7634,
      "air▁": 7635,
      "shadow": 7636,
      "dear": 7637,
      "skill": 7638,
      "twink": 7639,
      "bulan": 7640,
      "mom▁and▁dad.▁They▁": 7641,
      ".▁Thank▁you▁for▁": 7642,
      "eca": 7643,
      "get▁hurt": 7644,
      "▁asked▁her▁to▁": 7645,
      ".▁Please▁": 7646,
      "bear▁named▁": 7647,
      "castle▁and▁": 7648,
      "before▁you▁": 7649,
      "it▁would▁be▁": 7650,
      "in▁her▁garden": 7651,
      "opened▁it▁and▁": 7652,
      "bre": 7653,
      "gol": 7654,
      "wo": 7655,
      "him.▁They▁": 7656,
      ".▁His▁mommy▁": 7657,
      "lake▁and▁": 7658,
      "mosqu": 7659,
      "market": 7660,
      "they▁arrived▁at▁the▁": 7661,
      "big▁boy▁": 7662,
      "little▁mouse▁": 7663,
      "bread▁and▁": 7664,
      "she▁could▁not▁": 7665,
      "Tom▁was▁": 7666,
      "▁One▁": 7667,
      "beam": 7668,
      "popcorn": 7669,
      "ornam": 7670,
      "test▁": 7671,
      "closed▁her▁eyes▁and▁": 7672,
      ",▁her▁": 7673,
      "wolf": 7674,
      "fan": 7675,
      "cauli": 7676,
      ".▁It▁was▁a▁big,▁": 7677,
      "buy▁the▁": 7678,
      "distant▁": 7679,
      "year-old▁": 7680,
      "Yes▁": 7681,
      "shut▁": 7682,
      "shell▁": 7683,
      "full▁": 7684,
      "band▁": 7685,
      "dirt▁and▁": 7686,
      "has": 7687,
      "ed▁it▁with▁": 7688,
      "fort": 7689,
      "sell▁": 7690,
      "Milli": 7691,
      "ave▁": 7692,
      "was▁surprised▁and▁": 7693,
      "vase": 7694,
      "smiled▁and▁said,▁\"Thank▁you,▁": 7695,
      "▁Once▁upon▁a▁time,▁there▁was▁a▁little▁girl▁named▁Lily.▁Lily▁": 7696,
      "started▁to▁get▁": 7697,
      "!\"▁Ben▁said.▁\"": 7698,
      "berries▁": 7699,
      "worked▁hard▁and▁": 7700,
      "it▁in▁the▁": 7701,
      "explored▁the▁": 7702,
      "case": 7703,
      "scor": 7704,
      "▁at▁a▁": 7705,
      "ignoran": 7706,
      "nodded▁her▁": 7707,
      "tuck": 7708,
      "Tim's▁mom▁": 7709,
      "of▁cour": 7710,
      "ed▁to▁see▁": 7711,
      "vase▁": 7712,
      "enjoyed▁their▁": 7713,
      "insist": 7714,
      "was▁so▁proud▁of▁her▁": 7715,
      "saw▁a▁big▁tree▁": 7716,
      "!▁Everyone▁": 7717,
      "kaya": 7718,
      "interesting": 7719,
      "stirr": 7720,
      "▁anci": 7721,
      "let's▁go▁": 7722,
      "▁Once▁upon▁a▁time,▁there▁was▁a▁little▁boy▁named▁Timmy.▁Timmy▁loved▁to▁play▁with▁his▁": 7723,
      "learn▁to▁": 7724,
      "fence▁": 7725,
      "scatter": 7726,
      ".▁They▁are▁happy.▁They▁": 7727,
      "take▁a▁closer▁look": 7728,
      "dance▁and▁": 7729,
      ",\"▁her▁": 7730,
      "cheek": 7731,
      "thought▁it▁was▁so▁": 7732,
      "gel▁": 7733,
      "iel": 7734,
      "Mia's▁": 7735,
      "ouder": 7736,
      "This▁is▁my▁": 7737,
      "Clar": 7738,
      "day▁ever": 7739,
      ".▁Then▁the▁": 7740,
      "▁anx": 7741,
      "moon▁": 7742,
      "bedroom": 7743,
      "print▁": 7744,
      "put▁on▁the▁": 7745,
      "socc": 7746,
      "rend": 7747,
      "solve▁": 7748,
      "Kim▁": 7749,
      "did▁a▁great▁": 7750,
      "needs▁": 7751,
      "caterpillar": 7752,
      "went▁outside▁to▁play": 7753,
      "found▁a▁shiny▁": 7754,
      "was▁so▁happy▁to▁be▁": 7755,
      "bite▁and▁": 7756,
      "fell▁down▁and▁": 7757,
      ".\"\n\nThe▁little▁girl▁": 7758,
      "rushed▁": 7759,
      "Ton": 7760,
      "next▁time,▁": 7761,
      "soap": 7762,
      "ing▁all▁the▁": 7763,
      "rose▁": 7764,
      "Do▁not▁": 7765,
      "ot": 7766,
      "man▁was▁": 7767,
      "smiled▁and▁said,▁\"That's▁": 7768,
      "symbo": 7769,
      "ran▁around▁": 7770,
      ".\n\nMia▁": 7771,
      "sneak": 7772,
      "went▁to▁the▁store▁and▁": 7773,
      "charming▁": 7774,
      "said,▁\"I▁want▁to▁": 7775,
      "cat.▁The▁cat▁": 7776,
      "▁anymore.": 7777,
      "only": 7778,
      "cero": 7779,
      "langu": 7780,
      "Ben.▁She▁": 7781,
      "in▁the▁car": 7782,
      "relea": 7783,
      "on▁a▁big▁": 7784,
      "!\"▁Mom▁": 7785,
      "wanted▁to▁see▁the▁": 7786,
      "angry.▁She▁": 7787,
      "cars,▁": 7788,
      "stamp": 7789,
      "louder": 7790,
      "feed▁the▁": 7791,
      "filled▁": 7792,
      "shouted": 7793,
      "take▁a▁nap": 7794,
      "y,▁but▁she▁": 7795,
      "in▁her▁pocket": 7796,
      "hadn't▁": 7797,
      "came▁in▁and▁": 7798,
      "dreamed▁of▁": 7799,
      "petal": 7800,
      "Mom.▁They▁": 7801,
      "Sara's▁": 7802,
      "knew▁that▁the▁": 7803,
      "crayons▁and▁": 7804,
      "to▁stay▁": 7805,
      "skelet": 7806,
      "too,▁": 7807,
      "as▁she▁": 7808,
      "s.\n\nThey▁": 7809,
      "drew▁": 7810,
      "were▁playing▁in▁the▁garden": 7811,
      ".▁Billy▁": 7812,
      "more▁careful": 7813,
      "forgott": 7814,
      "forest▁and▁": 7815,
      "smiled.\n\n\"": 7816,
      "sword": 7817,
      "forgot▁the▁": 7818,
      "listen▁to▁the▁": 7819,
      "▁afraid": 7820,
      "▁hopped▁": 7821,
      "hats▁and▁": 7822,
      "didn't▁know▁how▁to▁": 7823,
      "if▁the▁": 7824,
      "pas": 7825,
      "▁an▁old▁": 7826,
      "bottom": 7827,
      "ges": 7828,
      ".\"\n\nTim▁": 7829,
      "shook▁": 7830,
      "▁hugg": 7831,
      "giraff": 7832,
      "Go▁away,▁": 7833,
      "going▁to▁be▁": 7834,
      "there▁and▁": 7835,
      "Just▁then,▁a▁": 7836,
      "colors▁": 7837,
      "for▁a▁few▁": 7838,
      "!\"▁Lila▁": 7839,
      "sometimes,▁": 7840,
      "love▁to▁": 7841,
      "e.▁Everyone▁": 7842,
      "it's": 7843,
      "everyone▁was▁": 7844,
      ".▁It▁can▁": 7845,
      "feet▁": 7846,
      "parrot▁": 7847,
      "now,▁": 7848,
      ".▁Maybe▁we▁can▁": 7849,
      "know▁you▁": 7850,
      "beach▁and▁": 7851,
      "child": 7852,
      "on▁it.▁She▁": 7853,
      "You▁are▁welcom": 7854,
      "today▁": 7855,
      "down▁from▁the▁": 7856,
      "moral▁of▁the▁story▁is:▁": 7857,
      "breez": 7858,
      "Mim": 7859,
      "the▁dog▁": 7860,
      "▁accident": 7861,
      "way▁to▁the▁": 7862,
      "fragil": 7863,
      "nail": 7864,
      "▁asked.\n\n": 7865,
      "pped▁the▁": 7866,
      "Ducky▁": 7867,
      "quickly▁ran▁": 7868,
      "rhinocero": 7869,
      "Lily.\n\n\"": 7870,
      "dolphin": 7871,
      "enc": 7872,
      "pet▁the▁": 7873,
      "twirl": 7874,
      "juicy▁": 7875,
      "felt▁bad▁and▁": 7876,
      "thought▁that▁": 7877,
      "dust": 7878,
      "opened▁the▁box▁and▁": 7879,
      "er▁the▁": 7880,
      "stuffed▁": 7881,
      "suit": 7882,
      "play▁with▁my▁": 7883,
      "kept": 7884,
      "orn▁": 7885,
      "pirate▁": 7886,
      ".\n\nAs▁the▁": 7887,
      "did▁not▁see▁the▁": 7888,
      "gett": 7889,
      "ladder": 7890,
      "▁anywher": 7891,
      "comb": 7892,
      "little▁girl▁named▁Lily▁": 7893,
      "?\"▁Ben▁": 7894,
      "is▁a▁good▁": 7895,
      "!▁A▁": 7896,
      "▁about▁her▁": 7897,
      ",▁it▁was▁": 7898,
      "swimming▁in▁the▁": 7899,
      "heard▁the▁noise▁and▁": 7900,
      ".▁You▁have▁": 7901,
      "until▁it▁was▁time▁to▁go▁hom": 7902,
      "coat▁and▁": 7903,
      "from▁that▁day▁on,▁": 7904,
      "?\"▁Tom▁": 7905,
      "greed": 7906,
      "scoop": 7907,
      "chew▁": 7908,
      "picked▁up▁a▁": 7909,
      "pot▁and▁": 7910,
      "trunk": 7911,
      "surround": 7912,
      "jacket": 7913,
      "Mia,▁": 7914,
      ".▁That▁is▁": 7915,
      ".▁They▁asked▁": 7916,
      "more▁fun▁": 7917,
      "took▁her▁to▁the▁": 7918,
      "colors": 7919,
      "drew▁a▁": 7920,
      ",▁I▁will▁": 7921,
      "!\n\n\"": 7922,
      ".▁But▁you▁have▁to▁": 7923,
      "Mr.▁B": 7924,
      "medi": 7925,
      "give▁it▁": 7926,
      "knew▁he▁": 7927,
      "ish": 7928,
      "ped": 7929,
      "we▁should▁": 7930,
      "instead▁of▁": 7931,
      "Well,▁": 7932,
      "sub": 7933,
      "got▁to▁the▁": 7934,
      "friends.▁They▁like▁to▁play▁in▁the▁park.▁One▁day,▁they▁": 7935,
      "upset▁": 7936,
      "ceil": 7937,
      "Joe▁and▁": 7938,
      "other▁people": 7939,
      "saw▁a▁small▁": 7940,
      "Tim▁and▁Sam▁": 7941,
      "hie▁": 7942,
      ",▁a▁big▁": 7943,
      "ed▁all▁": 7944,
      "streng": 7945,
      "pped▁and▁": 7946,
      "sunglasse": 7947,
      "telling▁": 7948,
      "Jack▁and▁Jill▁": 7949,
      "dolphin▁": 7950,
      "Joey▁": 7951,
      "them▁all▁": 7952,
      "glov": 7953,
      "in▁his▁pocket": 7954,
      "fixed▁the▁": 7955,
      "stone": 7956,
      "played▁with▁her▁": 7957,
      ",▁but▁Lily▁": 7958,
      "▁Once▁upon▁a▁time,▁there▁was▁a▁happy▁": 7959,
      "iss▁": 7960,
      "thought▁it▁was▁very▁": 7961,
      "me▁the▁": 7962,
      "help▁her": 7963,
      "planet": 7964,
      "pale▁": 7965,
      "felt▁bad": 7966,
      "relie": 7967,
      "queen": 7968,
      "Grace▁": 7969,
      "at▁a▁": 7970,
      "▁as▁it▁": 7971,
      "remembered▁to▁": 7972,
      ".▁One▁day,▁while▁": 7973,
      "too▁far": 7974,
      "higher▁": 7975,
      ".▁Molly▁": 7976,
      "let▁him▁": 7977,
      ".▁\n\nFrom▁that▁day▁on,▁": 7978,
      "necklace": 7979,
      "was▁so▁happy.▁She▁": 7980,
      "!▁I'm▁": 7981,
      "Paul▁": 7982,
      ",▁\"Let's▁": 7983,
      "newspa": 7984,
      "ed▁about▁the▁": 7985,
      "she▁always▁": 7986,
      "mole▁": 7987,
      "bee": 7988,
      "s.▁S": 7989,
      "okay▁to▁": 7990,
      "hugged▁her": 7991,
      "thought▁about▁it▁and▁": 7992,
      "band-aid▁": 7993,
      "felt▁bad▁": 7994,
      "around,▁": 7995,
      "pair▁": 7996,
      ",▁but▁then▁": 7997,
      "energ": 7998,
      "▁Once,▁there▁was▁a▁": 7999,
      "moment▁": 8000,
      "everything▁was▁": 8001,
      "there▁to▁": 8002,
      "split▁": 8003,
      "drawer": 8004,
      "▁Tom▁": 8005,
      "clock": 8006,
      "sofa": 8007,
      "shouldn't▁": 8008,
      "liked▁it": 8009,
      "asham": 8010,
      ".\"▁But▁": 8011,
      "saw▁what▁happen": 8012,
      "cars": 8013,
      "hands.▁They▁": 8014,
      ".▁\n\nSo▁": 8015,
      "swim▁in▁the▁": 8016,
      "puni": 8017,
      "rabbit▁was▁": 8018,
      "hall": 8019,
      ".▁\n\nOne▁day▁": 8020,
      "after▁": 8021,
      "because▁he▁had▁": 8022,
      "nose▁": 8023,
      "y,▁and▁": 8024,
      "having▁so▁much▁fun▁": 8025,
      "know▁how▁to▁": 8026,
      "shovel": 8027,
      "let▁her▁": 8028,
      "walked▁away": 8029,
      "Lily▁and▁Ben▁are▁": 8030,
      "house.▁He▁": 8031,
      "say▁goodby": 8032,
      "nodded▁and▁said,▁\"Yes,▁": 8033,
      "with▁my▁": 8034,
      "bone▁": 8035,
      "web": 8036,
      "to▁help▁the▁": 8037,
      "in▁the▁middle▁of▁the▁": 8038,
      "fighting▁": 8039,
      "coat▁": 8040,
      "they▁were▁all▁": 8041,
      "corner▁of▁the▁": 8042,
      "nowhere▁": 8043,
      "gether▁": 8044,
      ".▁You're▁": 8045,
      "them▁and▁said,▁\"": 8046,
      "that▁she▁was▁": 8047,
      "playing▁with▁a▁": 8048,
      "you'll▁": 8049,
      "because▁they▁": 8050,
      "don't▁be▁": 8051,
      "cheerful▁": 8052,
      "ladder▁and▁": 8053,
      "played▁with▁his▁": 8054,
      "ist▁": 8055,
      "stranger▁": 8056,
      ".▁But▁it▁was▁too▁": 8057,
      "sandwich▁": 8058,
      ".▁I▁have▁": 8059,
      "couldn't▁help▁but▁": 8060,
      "thought,▁\"": 8061,
      ",\"▁Lily▁said.\n\n\"": 8062,
      "went▁to▁the▁park▁to▁play": 8063,
      "lunch▁": 8064,
      "became▁good▁friends▁and▁": 8065,
      "what▁he▁had▁": 8066,
      "fell▁to▁the▁": 8067,
      "boy,▁": 8068,
      "run▁around▁": 8069,
      "grocer": 8070,
      "▁anyway": 8071,
      ".\n\nOne▁day,▁she▁": 8072,
      "were▁playing▁in▁the▁park.▁They▁liked▁to▁": 8073,
      ".▁The▁ball▁": 8074,
      "took▁him▁to▁the▁": 8075,
      "became▁the▁best▁of▁": 8076,
      ".\"\n\nSo▁": 8077,
      "microsco": 8078,
      "up▁at▁the▁": 8079,
      "Max▁was▁": 8080,
      "▁anymore.▁She▁": 8081,
      "Daisy▁was▁": 8082,
      "bird▁was▁": 8083,
      "given": 8084,
      "so▁she▁could▁": 8085,
      "brick": 8086,
      "lend▁": 8087,
      "I▁could▁": 8088,
      "cartoon": 8089,
      "her▁friend": 8090,
      "nurse▁": 8091,
      "curious,▁": 8092,
      "bush▁": 8093,
      "Molly▁and▁": 8094,
      "squar": 8095,
      "ed▁again▁and▁": 8096,
      ".\n\nAfter▁the▁": 8097,
      "para": 8098,
      "s▁in▁": 8099,
      "unit": 8100,
      ".▁There▁are▁": 8101,
      "Danny▁": 8102,
      "family▁was▁": 8103,
      "too▁fast": 8104,
      "last": 8105,
      "e▁and▁he▁": 8106,
      "push▁the▁": 8107,
      "That▁sounds▁": 8108,
      "says.▁\"But▁": 8109,
      "got▁some▁": 8110,
      "gave▁them▁a▁": 8111,
      "surrend": 8112,
      "let▁it▁": 8113,
      "again▁": 8114,
      "reach▁it": 8115,
      "matt": 8116,
      "with▁big▁": 8117,
      "one▁last▁": 8118,
      ".▁Her▁name▁was▁": 8119,
      "new▁friends": 8120,
      "comes▁to▁": 8121,
      "shelf▁": 8122,
      "statu": 8123,
      "ug▁and▁": 8124,
      "remember▁the▁": 8125,
      "enthusiastic": 8126,
      "toy▁box": 8127,
      "even▁when▁": 8128,
      "Leo": 8129,
      "floor▁": 8130,
      "moving▁": 8131,
      "fit": 8132,
      "slow▁": 8133,
      "fighting": 8134,
      "invest": 8135,
      ".▁Timmy's▁": 8136,
      "curious▁and▁wanted▁to▁": 8137,
      "found▁her▁": 8138,
      "team▁": 8139,
      "stories▁and▁": 8140,
      ".▁They▁saw▁the▁": 8141,
      "honest▁and▁": 8142,
      "said,▁\"I▁don't▁": 8143,
      "ice▁and▁": 8144,
      "fountain": 8145,
      "ov": 8146,
      "investig": 8147,
      "chim": 8148,
      "ecause▁": 8149,
      ".\"\n\nLily▁was▁": 8150,
      "shark▁": 8151,
      "big▁house": 8152,
      "messy▁": 8153,
      "bathtub": 8154,
      "little▁girl▁and▁": 8155,
      "plast": 8156,
      "never": 8157,
      "rule": 8158,
      "amazing▁": 8159,
      "ond": 8160,
      "shared▁their▁": 8161,
      "just▁like▁the▁": 8162,
      "relieved▁": 8163,
      "car.▁He▁": 8164,
      "said▁she▁was▁": 8165,
      "knock▁": 8166,
      "guess▁": 8167,
      "to▁be▁careful▁": 8168,
      "Lily▁asked▁her▁": 8169,
      "person": 8170,
      "haircut": 8171,
      "▁almost▁": 8172,
      ".\n\nSara▁": 8173,
      "was▁very▁excited": 8174,
      "hoop": 8175,
      "glad": 8176,
      "driving▁": 8177,
      "played▁together▁and▁": 8178,
      "because▁he▁was▁": 8179,
      "the▁same▁": 8180,
      "hero▁": 8181,
      "cloth▁": 8182,
      "needed▁a▁": 8183,
      "having▁fun▁": 8184,
      "no,▁": 8185,
      "fly▁away": 8186,
      "had▁an▁idea.▁She▁": 8187,
      "▁about▁his▁": 8188,
      "ular▁": 8189,
      "▁Once▁upon▁a▁time,▁there▁was▁a▁little▁boy▁named▁Timmy.▁Timmy▁loved▁to▁": 8190,
      "▁Sam▁and▁": 8191,
      "help▁his▁": 8192,
      ".▁They▁are▁happy▁and▁": 8193,
      "I▁don't▁want▁to▁": 8194,
      "Pe": 8195,
      "being▁a▁": 8196,
      "lawy": 8197,
      "pretended▁to▁": 8198,
      ".▁His▁friends▁": 8199,
      "melt": 8200,
      "returned▁": 8201,
      "popular▁": 8202,
      "offered▁to▁": 8203,
      "peanut": 8204,
      ".\n\nHer▁": 8205,
      "man.▁He▁": 8206,
      "s.▁When▁": 8207,
      "who▁could▁": 8208,
      "ture▁": 8209,
      "replied,▁â€œ": 8210,
      "they▁will▁": 8211,
      "girl▁and▁": 8212,
      "Hello▁": 8213,
      ",▁the▁little▁girl▁": 8214,
      "hurt▁her▁": 8215,
      "heard▁a▁voice": 8216,
      "!\"▁said▁the▁": 8217,
      "as▁the▁": 8218,
      ".▁The▁lion▁": 8219,
      "record": 8220,
      "claw": 8221,
      "his▁mum▁": 8222,
      "suff": 8223,
      ".\"\n\nTom▁and▁Lily▁": 8224,
      "ing,▁he▁": 8225,
      "pant": 8226,
      "bird▁flew▁": 8227,
      "says▁\"": 8228,
      "▁asking▁": 8229,
      "Mum▁and▁Dad▁": 8230,
      "better▁to▁": 8231,
      "toys.▁One▁day,▁": 8232,
      "pick▁the▁": 8233,
      "I▁am▁a▁": 8234,
      "uncle▁": 8235,
      "silly▁and▁": 8236,
      "hill▁and▁": 8237,
      "more▁fun": 8238,
      "ed▁as▁": 8239,
      "find▁her▁": 8240,
      "shoes▁": 8241,
      "have▁enough▁": 8242,
      "starting▁to▁": 8243,
      "every▁day,▁": 8244,
      "next▁to▁the▁": 8245,
      ".\"▁So,▁": 8246,
      "shining▁": 8247,
      ".▁Be": 8248,
      "was▁so": 8249,
      "house.▁She▁": 8250,
      "had▁an▁": 8251,
      ".▁But▁then▁": 8252,
      "er.▁The▁": 8253,
      "very▁special": 8254,
      "this▁and▁": 8255,
      "Papa▁": 8256,
      "hurt▁his▁": 8257,
      ",▁like▁": 8258,
      "had▁a▁good▁": 8259,
      "something▁else▁": 8260,
      "value▁": 8261,
      "pretended▁": 8262,
      "▁aunt▁": 8263,
      "seco": 8264,
      "if▁he▁wanted▁to▁": 8265,
      "While▁they▁were▁": 8266,
      "candy▁and▁": 8267,
      "ed▁a▁lot": 8268,
      "for▁himself": 8269,
      "thinks▁it▁is▁": 8270,
      ".▁She▁was▁not▁": 8271,
      "let's▁go": 8272,
      "ople▁": 8273,
      "puppy": 8274,
      "cage▁": 8275,
      "shrugg": 8276,
      ".▁I▁will▁be▁": 8277,
      "jungle▁": 8278,
      "further": 8279,
      "journey▁": 8280,
      "valle": 8281,
      "▁around▁his▁": 8282,
      "missil": 8283,
      ".\n\n\"Tom,▁": 8284,
      ".\n\nAnd▁": 8285,
      "free": 8286,
      "they▁were▁very▁": 8287,
      "regre": 8288,
      ".▁They▁were▁happy.": 8289,
      "cherri": 8290,
      "top,▁": 8291,
      ".▁It▁makes▁": 8292,
      "ing,▁she▁": 8293,
      "gon": 8294,
      "▁Tommy▁": 8295,
      ".\n\n\"Ben,▁": 8296,
      "!\"▁Lily▁said,▁": 8297,
      "called▁the▁": 8298,
      "lizard▁": 8299,
      "it's▁a▁": 8300,
      "?\"\n\nAnna▁": 8301,
      "Daddy": 8302,
      "but▁it▁": 8303,
      ".▁They▁see▁a▁": 8304,
      "snack▁": 8305,
      "s▁like▁": 8306,
      "was▁so▁proud▁": 8307,
      "draw▁a▁": 8308,
      ".▁\n\nJack▁": 8309,
      "wanted▁her▁": 8310,
      "exer": 8311,
      "were▁not▁": 8312,
      "broke▁the▁": 8313,
      "faster▁and▁faster": 8314,
      "never▁forget▁": 8315,
      ".▁On▁the▁": 8316,
      "jar▁of▁": 8317,
      "view": 8318,
      "▁Lily▁liked▁to▁": 8319,
      "wait▁for▁the▁": 8320,
      "rubber▁": 8321,
      "unpack": 8322,
      "stol": 8323,
      "miner": 8324,
      "to▁be▁careful▁and▁": 8325,
      "jealous▁": 8326,
      "?â€\n\nThe▁": 8327,
      "something▁to▁": 8328,
      "orange": 8329,
      "play▁a▁game▁": 8330,
      "up▁into▁the▁": 8331,
      "fell▁asleep▁": 8332,
      "naughty▁and▁": 8333,
      "▁at▁all": 8334,
      "for▁a▁while,▁": 8335,
      "a▁was▁": 8336,
      "with▁him▁": 8337,
      "stuck▁in▁a▁": 8338,
      "ed▁into▁the▁": 8339,
      "place▁and▁": 8340,
      "screw": 8341,
      "vet▁": 8342,
      "hope▁": 8343,
      "lamp▁": 8344,
      "too▁hard": 8345,
      "jog": 8346,
      "beetle▁": 8347,
      "felt▁sorry▁for▁": 8348,
      "did▁not▁listen▁to▁": 8349,
      "ed,▁but▁he▁": 8350,
      "s,▁and▁the▁": 8351,
      "made▁a▁loud▁noise": 8352,
      "on▁the▁shelf": 8353,
      "calm▁and▁": 8354,
      "crazy▁": 8355,
      "birds▁were▁": 8356,
      "in▁the▁mirror": 8357,
      "toil": 8358,
      ".▁You▁need▁to▁": 8359,
      "dishwash": 8360,
      "chimne": 8361,
      "said.▁\"But▁": 8362,
      "Ow,▁": 8363,
      "waved▁goodbye▁and▁": 8364,
      "rat▁": 8365,
      "pretending▁": 8366,
      "learned▁his▁": 8367,
      "That▁was▁": 8368,
      "bridge▁": 8369,
      "needed▁help": 8370,
      "3▁years▁old▁and▁": 8371,
      "flu": 8372,
      "Tru": 8373,
      "flag▁": 8374,
      "trap": 8375,
      "comple": 8376,
      "he▁started▁to▁": 8377,
      "eyes,▁": 8378,
      "organize▁": 8379,
      "juice": 8380,
      "Mr.▁S": 8381,
      "to▁play▁with▁the▁": 8382,
      "collar": 8383,
      "▁There▁": 8384,
      "fortun": 8385,
      "long▁tail": 8386,
      "there▁are▁": 8387,
      "get▁out": 8388,
      "dig▁": 8389,
      "oat": 8390,
      "shrink": 8391,
      ".▁After▁a▁while,▁": 8392,
      "Of▁course▁": 8393,
      ".▁At▁the▁": 8394,
      "singing▁and▁": 8395,
      "when▁he▁saw▁a▁": 8396,
      "we▁have▁to▁be▁": 8397,
      "eating▁the▁": 8398,
      "curtain": 8399,
      ".▁Come▁on,▁let's▁": 8400,
      "with▁all▁the▁": 8401,
      "barked▁": 8402,
      "feeling▁a▁": 8403,
      ",▁Timmy▁": 8404,
      "ocean▁": 8405,
      "quarrel": 8406,
      "leopard▁": 8407,
      "passp": 8408,
      "apologiz": 8409,
      "ed▁after▁": 8410,
      "impressive▁": 8411,
      ".▁Instea": 8412,
      ".▁It's▁not▁": 8413,
      "Okay": 8414,
      "playing▁a▁": 8415,
      "shake▁": 8416,
      "journey": 8417,
      "ness▁": 8418,
      "Timmy.▁He▁": 8419,
      "that▁day,▁": 8420,
      ".▁But▁one▁day,▁": 8421,
      "summ": 8422,
      "Mark": 8423,
      "lives▁": 8424,
      "whit": 8425,
      "for▁my▁": 8426,
      "couch▁and▁": 8427,
      "play▁with▁him": 8428,
      ".▁Today▁": 8429,
      "made▁his▁": 8430,
      "!\"▁she▁said": 8431,
      "angry▁and▁": 8432,
      "graceful▁": 8433,
      ".▁He▁wants▁to▁": 8434,
      "knew▁she▁had▁": 8435,
      ".▁They▁were▁all▁": 8436,
      "they▁started▁to▁": 8437,
      "was▁now▁": 8438,
      "yiel": 8439,
      "counter": 8440,
      "useful▁": 8441,
      "hour": 8442,
      "puts▁": 8443,
      "ser▁": 8444,
      "playful▁": 8445,
      "honey": 8446,
      "▁Sara▁and▁Ben▁": 8447,
      "worried▁and▁": 8448,
      "helmet": 8449,
      "puts▁the▁": 8450,
      "e,▁so▁he▁": 8451,
      "attic": 8452,
      "wear▁her▁": 8453,
      "home.▁She▁": 8454,
[...]
